<unk>	0
<s>	0
</s>	0
:	-2.83886
.	-3.00858
'	-3.38432
▁User	-3.46209
▁I	-3.59018
▁Bot	-3.6172
s	-3.74459
,	-3.75404
▁you	-3.87247
▁the	-4.07317
?	-4.12332
▁.	-4.15668
▁to	-4.16927
▁a	-4.20283
t	-4.46475
▁it	-4.71444
▁,	-4.9357
▁and	-4.93971
▁of	-4.94301
▁is	-4.95684
▁that	-5.04864
▁in	-5.05764
...	-5.11611
▁You	-5.14422
▁me	-5.20304
▁?	-5.24776
▁What	-5.32079
▁for	-5.32748
m	-5.33493
!	-5.37066
▁have	-5.43188
re	-5.5043
▁do	-5.5285
▁your	-5.5513
▁be	-5.57755
▁know	-5.60244
▁on	-5.6373
▁this	-5.64752
▁we	-5.6972
▁can	-5.70453
▁my	-5.70514
▁don	-5.70857
▁with	-5.76178
▁was	-5.76541
▁are	-5.80383
▁It	-5.80535
ll	-5.84183
▁like	-5.85421
d	-5.87434
▁what	-5.88065
-	-5.89105
▁not	-5.89178
▁--	-5.92149
▁he	-5.95349
▁about	-5.97403
▁get	-6.05716
▁out	-6.10371
▁all	-6.1152
▁just	-6.12459
▁think	-6.15661
▁We	-6.16279
ing	-6.16465
▁No	-6.18775
▁here	-6.19128
▁That	-6.19243
▁want	-6.21782
ve	-6.22065
▁up	-6.22385
▁The	-6.24636
▁there	-6.25705
▁at	-6.27758
▁one	-6.29495
▁him	-6.31215
▁but	-6.31563
▁so	-6.32275
▁A	-6.33278
▁’	-6.33466
▁He	-6.33853
▁go	-6.34394
▁they	-6.34556
▁got	-6.35765
▁How	-6.39645
▁right	-6.39691
▁And	-6.41596
▁Yes	-6.44434
u	-6.44923
▁going	-6.46539
ed	-6.46715
▁an	-6.47142
▁if	-6.48821
▁see	-6.49662
▁will	-6.52574
▁But	-6.52704
▁Well	-6.54117
▁her	-6.54851
▁Oh	-6.5603
▁time	-6.56778
▁no	-6.66481
▁good	-6.68301
▁!	-6.6853
▁some	-6.69
▁from	-6.6986
▁...	-6.72099
▁now	-6.73044
▁would	-6.73073
▁she	-6.75
▁or	-6.76446
▁s	-6.77731
▁been	-6.78194
▁did	-6.8134
▁take	-6.8346
▁They	-6.84975
▁how	-6.85169
▁his	-6.86781
▁back	-6.87372
▁as	-6.87405
>	-6.88957
▁them	-6.8909
▁too	-6.91984
▁tell	-6.92087
▁us	-6.93227
▁could	-6.93881
▁Yeah	-6.94814
▁were	-6.95305
▁need	-6.96144
▁when	-6.96762
▁Do	-6.96795
▁say	-6.96883
▁So	-6.97934
▁had	-6.98029
▁make	-6.99716
▁really	-6.9987
▁-	-6.99979
▁Why	-7.0033
er	-7.00814
▁much	-7.01133
▁very	-7.01241
▁didn	-7.01728
▁by	-7.02544
▁come	-7.02715
y	-7.03314
▁our	-7.03855
▁way	-7.04422
▁more	-7.05863
▁something	-7.07361
▁who	-7.07582
--	-7.08313
▁She	-7.08647
▁mean	-7.09294
▁This	-7.10774
▁man	-7.11196
▁over	-7.13922
▁If	-7.14634
▁any	-7.14763
▁'	-7.16664
▁has	-7.16923
▁never	-7.17076
▁Don	-7.17381
▁should	-7.17869
in	-7.20498
▁little	-7.23042
▁down	-7.23059
▁"	-7.2306
▁people	-7.2308
▁look	-7.24151
e	-7.24765
▁There	-7.26173
▁am	-7.26919
▁then	-7.27391
▁Mr	-7.29046
▁thing	-7.31018
▁off	-7.318
▁t	-7.32265
▁work	-7.32657
▁only	-7.34193
▁let	-7.34982
▁help	-7.35791
▁said	-7.37776
▁sure	-7.38177
ly	-7.38388
▁into	-7.38788
▁My	-7.38882
▁two	-7.40271
▁gonna	-7.42686
▁better	-7.43059
▁Let	-7.43081
▁Where	-7.43103
n	-7.43549
a	-7.44303
▁give	-7.46594
▁anything	-7.46621
r	-7.48647
▁where	-7.49096
▁why	-7.50442
▁love	-7.51747
▁other	-7.52429
▁find	-7.525
▁Just	-7.52605
▁day	-7.53461
</	-7.53724
▁Can	-7.54706
▁<	-7.55202
▁please	-7.55251
▁long	-7.56049
▁Now	-7.56309
▁sir	-7.56486
▁well	-7.56561
▁doing	-7.5845
▁Are	-7.58798
▁thought	-7.58961
▁Not	-7.5897
▁call	-7.59468
▁night	-7.59578
▁than	-7.59673
▁talk	-7.59715
▁before	-7.59741
▁sorry	-7.60962
▁money	-7.61621
▁first	-7.61872
▁	-7.63839
▁Who	-7.63893
▁must	-7.63966
▁last	-7.64367
▁lot	-7.64849
I	-7.65335
▁even	-7.65573
▁Good	-7.65806
▁around	-7.66521
▁still	-7.66718
▁All	-7.66866
▁Thank	-7.67466
▁won	-7.67481
▁things	-7.67529
▁put	-7.68494
▁always	-7.69665
▁name	-7.71668
▁ever	-7.72124
o	-7.72312
▁life	-7.72919
▁great	-7.7294
▁course	-7.73551
▁these	-7.74592
▁feel	-7.75926
▁kind	-7.76223
▁again	-7.77141
▁Then	-7.77437
▁years	-7.77508
al	-7.77837
i	-7.77844
▁home	-7.77957
▁place	-7.78659
▁told	-7.78703
▁their	-7.78781
▁new	-7.79056
▁Maybe	-7.81333
▁re	-7.81417
▁believe	-7.81695
▁Did	-7.82217
▁Okay	-7.82354
▁When	-7.82938
▁In	-7.839
▁Look	-7.84278
▁guy	-7.84687
▁after	-7.86311
▁away	-7.86333
▁Hey	-7.86857
▁job	-7.87001
es	-7.87604
▁because	-7.88128
▁does	-7.90008
▁doesn	-7.9139
▁old	-7.91726
▁those	-7.92158
▁room	-7.92211
▁keep	-7.92974
▁bad	-7.93952
▁car	-7.94089
▁God	-7.95973
▁Your	-7.96176
▁else	-7.9657
▁isn	-7.97381
▁ask	-7.97526
b	-7.97642
c	-7.97893
▁m	-7.98198
▁nothing	-7.98661
▁mind	-7.98785
▁made	-7.98791
▁C	-7.98917
▁big	-7.99464
▁hear	-8.01325
▁nice	-8.01397
▁real	-8.01902
▁Sure	-8.02789
▁own	-8.02977
▁might	-8.03029
▁many	-8.03038
g	-8.03453
▁problem	-8.03825
▁guess	-8.04389
▁everything	-8.04605
or	-8.04668
▁understand	-8.04781
▁S	-8.05008
p	-8.05509
▁wrong	-8.05725
▁three	-8.05857
▁Come	-8.06171
▁morning	-8.06859
▁house	-8.06863
▁okay	-8.06992
▁try	-8.0855
▁enough	-8.09077
▁Here	-8.0943
▁today	-8.09489
▁through	-8.09527
▁leave	-8.09532
l	-8.10394
▁next	-8.10613
▁care	-8.11311
▁girl	-8.11663
▁done	-8.12065
▁yourself	-8.12931
▁remember	-8.13653
▁OK	-8.13952
▁another	-8.14049
▁wouldn	-8.1425
▁stay	-8.14673
▁happened	-8.1469
▁idea	-8.14917
▁every	-8.14967
▁Have	-8.15655
▁shit	-8.15896
▁getting	-8.16056
▁talking	-8.16655
▁Thanks	-8.17523
▁best	-8.18407
▁left	-8.18623
▁wanted	-8.18639
▁fine	-8.18958
▁kill	-8.20605
▁dead	-8.20718
▁Of	-8.20966
▁looking	-8.21222
▁while	-8.21324
▁use	-8.21475
S	-8.21962
th	-8.2227
▁few	-8.22962
▁Please	-8.23322
▁world	-8.23685
▁hell	-8.23943
▁heard	-8.23946
▁pay	-8.23981
it	-8.24005
▁business	-8.24395
▁used	-8.25068
▁show	-8.25562
em	-8.25565
▁same	-8.25676
▁An	-8.25906
▁maybe	-8.26323
▁tomorrow	-8.26687
▁number	-8.26964
▁Hi	-8.27694
▁Hello	-8.27833
▁came	-8.27959
▁For	-8.2823
le	-8.28946
▁coming	-8.29094
▁may	-8.29157
▁being	-8.29313
"	-8.29545
▁someone	-8.29651
▁wasn	-8.29831
▁friend	-8.29848
▁haven	-8.2992
▁yes	-8.30383
▁play	-8.30426
▁week	-8.30726
▁part	-8.30785
▁went	-8.30987
▁saw	-8.31184
▁live	-8.31226
▁days	-8.32517
▁stop	-8.32636
▁hope	-8.34029
▁start	-8.34278
▁most	-8.34357
▁tonight	-8.3452
▁hard	-8.35016
▁seen	-8.35196
▁school	-8.35343
▁father	-8.3552
▁gotta	-8.35676
▁trying	-8.35911
▁run	-8.36053
▁read	-8.36646
v	-8.36803
▁Would	-8.36867
▁To	-8.36935
▁together	-8.36989
▁matter	-8.37142
▁year	-8.37802
▁meet	-8.37921
A	-8.38116
▁wait	-8.38173
▁Get	-8.3877
en	-8.38822
▁whole	-8.39785
▁pretty	-8.39937
▁afraid	-8.40121
▁already	-8.40858
▁buy	-8.40964
▁Go	-8.40996
▁knew	-8.41043
▁function	-8.41102
▁yet	-8.41433
▁ain	-8.42249
;	-8.42863
▁fucking	-8.43067
▁Right	-8.43102
able	-8.43228
▁point	-8.43314
."	-8.43387
▁mother	-8.44117
▁check	-8.44262
▁memory	-8.44435
▁myself	-8.44963
▁also	-8.45526
▁change	-8.46142
ra	-8.46361
▁company	-8.46891
▁found	-8.47253
▁fuck	-8.47763
▁small	-8.48053
▁guys	-8.48076
▁which	-8.48144
▁called	-8.48253
▁wife	-8.4841
▁such	-8.48613
▁list	-8.48795
▁boy	-8.49974
▁head	-8.50973
▁d	-8.51834
▁Tell	-8.52584
▁working	-8.52619
▁minutes	-8.52759
▁worry	-8.53592
ers	-8.53636
ce	-8.53671
▁Because	-8.53946
▁ago	-8.54117
▁hundred	-8.5458
▁One	-8.54768
ro	-8.5486
▁five	-8.54905
▁couldn	-8.55035
▁minute	-8.55427
▁code	-8.55719
▁class	-8.56376
▁set	-8.5648
▁bring	-8.56584
▁case	-8.57085
▁ten	-8.57403
▁friends	-8.57931
▁deal	-8.59096
▁quite	-8.59897
▁stuff	-8.60549
f	-8.60635
▁office	-8.60816
▁D	-8.60984
▁soon	-8.61104
▁woman	-8.61229
on	-8.61268
▁Like	-8.6138
▁killed	-8.61458
▁without	-8.61686
▁free	-8.61978
▁eat	-8.62063
▁phone	-8.62294
▁late	-8.62826
▁Will	-8.63382
▁each	-8.63676
▁took	-8.63768
▁men	-8.6377
an	-8.63938
man	-8.64373
▁once	-8.64698
▁son	-8.64781
z	-8.64816
ion	-8.64983
▁dollars	-8.65748
▁May	-8.65994
▁drink	-8.66003
▁Really	-8.66034
▁family	-8.66103
▁far	-8.66168
▁under	-8.66269
▁since	-8.66585
▁says	-8.66634
▁saying	-8.66768
▁Uh	-8.66898
▁ya	-8.67008
▁different	-8.67233
▁until	-8.67551
▁See	-8.6756
is	-8.67565
▁ready	-8.67663
▁thinking	-8.68048
▁true	-8.69658
il	-8.6983
▁probably	-8.70234
ting	-8.70251
▁important	-8.70317
▁open	-8.70453
▁end	-8.70685
▁bit	-8.7075
h	-8.70758
▁Could	-8.70999
▁stores	-8.71213
▁ll	-8.71265
▁food	-8.71482
▁move	-8.71778
▁turn	-8.71881
▁hand	-8.72082
▁hate	-8.72272
▁M	-8.72435
el	-8.72437
▁B	-8.72487
▁un	-8.72547
▁beautiful	-8.72576
▁gone	-8.72755
▁happy	-8.72916
▁later	-8.73173
▁T	-8.73297
▁face	-8.73518
▁Sorry	-8.73697
▁half	-8.73938
▁F	-8.74097
▁having	-8.74198
▁crazy	-8.74629
ic	-8.74632
▁Nothing	-8.7465
▁die	-8.74817
▁yeah	-8.74977
▁rest	-8.74997
▁de	-8.75192
▁walk	-8.75308
▁supposed	-8.75509
▁John	-8.7557
ar	-8.75597
▁kid	-8.75611
▁huh	-8.76126
up	-8.76189
ie	-8.76438
▁New	-8.76639
▁watch	-8.76675
▁hours	-8.76801
▁alone	-8.77077
▁task	-8.77258
▁baby	-8.77344
▁thank	-8.78166
▁often	-8.78181
▁Me	-8.78407
▁both	-8.78963
▁four	-8.79117
▁Re	-8.79181
▁computer	-8.79315
k	-8.79631
▁thousand	-8.7968
▁happen	-8.79686
▁sleep	-8.79741
▁Miss	-8.79879
▁Take	-8.79893
▁Or	-8.79971
li	-8.80086
▁trouble	-8.80147
▁order	-8.8059
▁easy	-8.80774
▁lost	-8.80873
est	-8.80929
▁As	-8.81187
ation	-8.81305
C	-8.81634
▁anyone	-8.81639
▁key	-8.81767
▁married	-8.8207
▁review	-8.82164
▁wish	-8.82873
O	-8.82876
▁question	-8.83196
▁looks	-8.83225
ter	-8.83478
?!	-8.83679
▁door	-8.83686
▁O	-8.84194
and	-8.84198
T	-8.8422
▁water	-8.84333
▁second	-8.84648
▁Wait	-8.84712
▁least	-8.85092
▁person	-8.85341
▁Listen	-8.85477
▁c	-8.85983
▁hit	-8.86291
▁chance	-8.8633
▁word	-8.86489
▁high	-8.86759
▁listen	-8.86795
▁side	-8.86976
▁country	-8.87034
E	-8.87069
▁moment	-8.87135
▁book	-8.87223
▁o	-8.87293
▁six	-8.87426
you	-8.87716
▁party	-8.87887
▁Dr	-8.87979
▁Ve	-8.88487
▁speak	-8.88796
▁story	-8.88806
▁send	-8.89019
▁kids	-8.89403
▁town	-8.89617
▁Excuse	-8.89705
▁taking	-8.89809
▁G	-8.89911
▁hurt	-8.90068
▁dinner	-8.90108
▁Be	-8.9028
▁Jesus	-8.90615
▁pick	-8.90663
▁exactly	-8.90723
M	-8.91181
▁Jack	-8.91202
us	-8.91223
▁twenty	-8.91225
▁anyway	-8.91356
▁sit	-8.9151
▁makes	-8.91843
ch	-8.91864
▁break	-8.91936
▁cut	-8.92038
▁couple	-8.92043
▁aren	-8.92072
▁Ma	-8.92179
ri	-8.92276
▁close	-8.92341
▁E	-8.92553
D	-8.92656
▁asked	-8.92752
ir	-8.92993
▁P	-8.93009
▁learn	-8.93024
▁Python	-8.9318
▁gave	-8.93624
ity	-8.93658
▁making	-8.93916
▁At	-8.94018
▁system	-8.94121
ur	-8.94488
▁Mrs	-8.94608
▁brother	-8.94617
U	-8.9504
▁wanna	-8.9507
▁line	-8.95121
▁uh	-8.95404
▁hold	-8.95612
to	-8.95757
▁young	-8.96029
▁month	-8.96515
▁hour	-8.96693
▁vector	-8.96781
▁actually	-8.96893
▁mine	-8.97294
▁though	-8.98127
ta	-8.98195
na	-8.98515
▁English	-8.98521
▁heart	-8.98634
am	-8.98935
▁stand	-8.98972
▁sounds	-8.99758
▁With	-8.99961
▁able	-9.00017
la	-9.00067
▁shot	-9.00408
▁bed	-9.00574
▁somebody	-9.00641
▁game	-9.00742
▁forget	-9.00808
at	-9.01153
▁thanks	-9.0168
ry	-9.01778
▁L	-9.01917
▁reason	-9.02341
▁card	-9.02792
ne	-9.02974
▁Some	-9.0299
w	-9.03239
lo	-9.03458
▁simple	-9.03468
▁information	-9.03702
ment	-9.03858
▁goes	-9.04161
▁sick	-9.04319
▁Which	-9.04396
me	-9.04552
▁tried	-9.04643
▁meeting	-9.04805
▁fun	-9.04842
▁glad	-9.05095
▁anymore	-9.05105
▁along	-9.05375
▁fact	-9.05378
▁wants	-9.05395
▁Great	-9.05801
▁seems	-9.06005
▁afternoon	-9.06155
▁calling	-9.06234
▁hot	-9.06246
▁plan	-9.0653
▁almost	-9.07107
▁sign	-9.07179
▁started	-9.0731
▁comes	-9.07877
▁waiting	-9.07886
▁special	-9.07939
▁eyes	-9.08312
▁Dad	-9.08425
▁movie	-9.08873
▁doctor	-9.08876
▁series	-9.08917
▁light	-9.09145
▁programs	-9.09232
▁either	-9.09282
▁drive	-9.10118
▁K	-9.10343
▁months	-9.10378
▁$	-9.10423
▁full	-9.10455
▁police	-9.10494
▁sort	-9.10787
R	-9.11142
co	-9.11213
▁telling	-9.11264
▁gun	-9.11364
B	-9.11515
▁price	-9.1204
▁derivative	-9.12259
▁truth	-9.12259
▁times	-9.12502
▁bus	-9.12937
▁fuckin	-9.13254
▁husband	-9.13399
▁serious	-9.13846
▁Fine	-9.1405
▁city	-9.14311
▁inside	-9.14655
ive	-9.14659
▁everyone	-9.14697
▁fire	-9.14885
▁ass	-9.15133
mon	-9.15135
▁Does	-9.15352
▁Sir	-9.15534
▁suppose	-9.15826
▁miss	-9.16033
▁possible	-9.1637
▁write	-9.16408
▁against	-9.16742
▁interested	-9.16981
▁between	-9.1716
da	-9.17239
de	-9.17527
▁children	-9.1769
▁living	-9.17691
▁Give	-9.1797
P	-9.18116
▁Ok	-9.18351
▁ma	-9.18367
▁trust	-9.18604
▁air	-9.18639
the	-9.18877
▁sense	-9.18893
▁Mary	-9.18955
▁feeling	-9.19147
▁Two	-9.19149
▁figure	-9.19286
▁seem	-9.19298
▁Mom	-9.19464
▁ahead	-9.1947
▁war	-9.19492
▁damn	-9.19551
▁cold	-9.19711
▁hair	-9.19711
▁Very	-9.19721
▁answer	-9.19931
▁study	-9.20041
▁blood	-9.20162
▁ordered	-9.20204
▁bank	-9.20272
▁Ah	-9.20638
x	-9.20688
▁offer	-9.2079
▁After	-9.20794
et	-9.20824
▁front	-9.21622
▁weeks	-9.21657
▁means	-9.21868
▁news	-9.2213
▁ship	-9.22408
▁body	-9.2246
▁Our	-9.22611
▁anybody	-9.22742
▁behind	-9.22872
▁language	-9.22872
▁coffee	-9.23012
▁date	-9.23094
▁De	-9.23215
▁account	-9.23637
▁evening	-9.23745
▁words	-9.23793
▁lose	-9.23882
▁funny	-9.24002
▁data	-9.24143
ier	-9.2419
▁By	-9.24236
▁death	-9.24565
no	-9.24628
ty	-9.24803
ul	-9.25013
▁trip	-9.25572
▁Christ	-9.26013
▁His	-9.2603
▁usually	-9.26161
▁running	-9.263
▁On	-9.26707
▁sound	-9.26759
▁apartment	-9.26875
N	-9.26952
▁outside	-9.26962
ck	-9.27557
▁everybody	-9.27604
▁*	-9.27639
▁p	-9.28675
▁Chinese	-9.28931
▁power	-9.29047
▁parents	-9.29399
▁hands	-9.29783
▁Four	-9.29831
▁Captain	-9.29976
▁fast	-9.30045
▁management	-9.30132
▁table	-9.30136
▁sister	-9.30139
▁hotel	-9.30449
▁fight	-9.30526
▁York	-9.3058
out	-9.30739
▁music	-9.30762
less	-9.30815
▁shouldn	-9.30926
▁service	-9.30954
▁rather	-9.31187
▁tired	-9.31368
se	-9.31413
▁form	-9.31438
▁women	-9.31643
▁machine	-9.31734
▁sent	-9.31898
▁breaking	-9.31955
▁wonderful	-9.32005
▁complex	-9.32089
ha	-9.32091
▁million	-9.32208
▁dog	-9.32562
ine	-9.32651
▁black	-9.32872
sh	-9.32972
▁Never	-9.33497
▁past	-9.33798
▁stupid	-9.33961
▁himself	-9.33983
ies	-9.34078
▁taken	-9.34229
▁child	-9.34276
▁e	-9.34577
▁wear	-9.34593
▁dear	-9.35127
um	-9.35141
▁Tom	-9.35164
▁co	-9.35698
ton	-9.35786
▁alive	-9.3592
▁busy	-9.36132
▁About	-9.36244
▁brought	-9.36335
▁limit	-9.36335
▁died	-9.36413
!!	-9.36428
▁expect	-9.36448
▁Man	-9.36539
▁George	-9.36816
▁daughter	-9.36977
▁white	-9.3714
▁Say	-9.37349
ist	-9.37485
ant	-9.37761
▁report	-9.37978
▁yesterday	-9.38112
▁touch	-9.38153
▁First	-9.38276
▁street	-9.38369
▁luck	-9.38683
▁enjoy	-9.38729
ate	-9.38758
▁worked	-9.38826
▁clothes	-9.38933
▁Only	-9.39001
▁catch	-9.3905
▁interesting	-9.39405
▁Fuck	-9.39648
▁con	-9.39746
▁worth	-9.39996
▁cool	-9.40261
▁short	-9.40525
▁asking	-9.40529
▁happens	-9.40572
▁questions	-9.40582
▁honey	-9.40589
▁wonder	-9.40853
▁perfect	-9.4086
▁thirty	-9.40929
▁safe	-9.40961
im	-9.40994
▁bar	-9.41125
▁3	-9.41137
son	-9.41211
▁shoot	-9.41554
ness	-9.41891
▁choice	-9.41933
▁piece	-9.41956
▁sometimes	-9.42101
▁shall	-9.42105
▁human	-9.4211
G	-9.42165
▁St	-9.42296
be	-9.42315
▁become	-9.42337
L	-9.4237
ma	-9.42388
▁nobody	-9.42463
▁scared	-9.42578
ling	-9.42666
▁Frank	-9.42889
▁steps	-9.42909
▁value	-9.4297
▁These	-9.43035
▁gets	-9.43041
▁step	-9.43075
ish	-9.43216
▁spend	-9.43275
▁experience	-9.43359
do	-9.43366
▁Huh	-9.43479
ent	-9.43552
▁cash	-9.43819
▁save	-9.43879
ia	-9.43998
▁near	-9.44267
as	-9.44445
▁train	-9.44489
▁address	-9.4468
▁Ha	-9.44813
▁straight	-9.44831
▁lunch	-9.44855
ke	-9.45169
▁leaving	-9.45205
▁picture	-9.45298
▁cost	-9.45333
▁clear	-9.45336
▁weekend	-9.45387
▁promise	-9.45448
▁Something	-9.45734
▁boss	-9.45748
▁charge	-9.45752
▁Any	-9.45997
▁Wow	-9.46088
▁red	-9.46233
▁Nobody	-9.46294
You	-9.46314
▁TV	-9.46445
▁somewhere	-9.46458
ian	-9.46643
▁whatever	-9.46715
▁welcome	-9.46791
▁Alright	-9.46793
▁Nice	-9.468
▁numbers	-9.46945
▁shut	-9.47324
▁playing	-9.47463
▁alright	-9.47505
▁eight	-9.47611
▁faster	-9.47613
▁top	-9.47789
▁describe	-9.47863
ff	-9.47969
▁paper	-9.48025
▁Actually	-9.48043
▁area	-9.48157
mo	-9.48213
age	-9.48553
▁g	-9.48618
▁seven	-9.48782
▁clean	-9.48788
▁visit	-9.49128
▁floor	-9.49129
te	-9.49261
▁follow	-9.49311
▁return	-9.49345
▁Bob	-9.49444
id	-9.49583
▁Study	-9.49678
▁field	-9.49689
▁ride	-9.49928
▁fifty	-9.50049
▁Was	-9.5005
▁early	-9.50248
▁10	-9.50332
we	-9.50387
▁bought	-9.50412
▁store	-9.50452
▁position	-9.50601
▁object	-9.50659
▁Got	-9.50778
pe	-9.50796
▁W	-9.50824
▁secret	-9.50959
▁plane	-9.51127
ous	-9.51133
▁Taylor	-9.51151
▁Stop	-9.51166
▁girls	-9.51167
▁agree	-9.51409
*	-9.51474
▁handle	-9.51534
▁lucky	-9.51623
▁kidding	-9.51714
ary	-9.51796
▁Everything	-9.51898
▁prefer	-9.52202
▁Bill	-9.52255
▁R	-9.5234
▁team	-9.52689
per	-9.52901
▁Even	-9.53482
▁mouth	-9.53791
▁dream	-9.54124
▁hospital	-9.54167
▁weren	-9.54195
▁improve	-9.54328
he	-9.54467
▁boys	-9.54718
▁American	-9.54945
▁lady	-9.54956
▁less	-9.54994
▁suit	-9.54996
▁exams	-9.55061
▁control	-9.55088
2	-9.55161
▁sell	-9.55288
ol	-9.556
ge	-9.55731
▁lives	-9.55908
▁explain	-9.55944
▁using	-9.56069
H	-9.56131
▁Anything	-9.56298
▁per	-9.56707
▁paid	-9.5689
▁finish	-9.56926
K	-9.5699
▁Her	-9.57092
▁file	-9.57151
if	-9.57165
▁5	-9.573
▁lie	-9.57354
▁appreciate	-9.57475
▁ticket	-9.57493
▁dance	-9.57592
▁Isn	-9.57838
▁fall	-9.57934
F	-9.58113
by	-9.58225
▁present	-9.58439
▁People	-9.58471
▁till	-9.58506
▁bet	-9.58665
▁Co	-9.58838
▁record	-9.59132
▁building	-9.59166
▁terrible	-9.59473
▁road	-9.59479
▁items	-9.59555
go	-9.59717
▁looked	-9.59881
▁Ho	-9.59937
▁beat	-9.59952
ad	-9.60201
7	-9.6023
tic	-9.6026
▁accident	-9.60687
▁win	-9.60811
▁smart	-9.60896
▁handling	-9.60916
▁fill	-9.61057
▁flight	-9.61103
▁pull	-9.61147
▁cause	-9.61298
▁pass	-9.61519
▁needs	-9.61824
▁track	-9.61928
▁law	-9.62104
▁Doctor	-9.62133
4	-9.62172
ber	-9.62197
▁Didn	-9.6228
▁credit	-9.62339
▁starting	-9.62484
W	-9.62551
▁problems	-9.62609
▁message	-9.62761
▁letter	-9.62842
▁Paul	-9.62862
▁notes	-9.63132
▁Those	-9.63175
▁Li	-9.63247
▁difference	-9.63383
▁President	-9.63385
▁station	-9.63395
clock	-9.63557
▁pleasure	-9.63593
00	-9.63713
▁Make	-9.63783
▁bag	-9.63792
▁stick	-9.63809
ner	-9.6382
▁act	-9.6387
▁From	-9.64015
▁ha	-9.64115
▁blow	-9.64169
▁drop	-9.6422
▁Harry	-9.64233
6	-9.64254
▁mom	-9.6431
one	-9.64428
▁J	-9.645
▁Shut	-9.64567
▁YOU	-9.64639
▁seat	-9.64707
oo	-9.64776
The	-9.64781
▁goddamn	-9.64903
▁certainly	-9.64916
▁known	-9.64962
▁interview	-9.65027
▁cover	-9.65152
▁progress	-9.6529
▁bother	-9.65338
▁books	-9.65429
1	-9.65431
op	-9.65438
▁total	-9.65564
▁Sometimes	-9.65719
▁China	-9.65726
3	-9.65863
▁David	-9.65934
▁personal	-9.65952
po	-9.66044
5	-9.66208
▁eye	-9.66582
▁test	-9.6664
nt	-9.66701
▁cannot	-9.66746
▁ball	-9.66776
▁sex	-9.66784
▁fool	-9.66792
▁met	-9.66973
▁tea	-9.67054
▁Every	-9.67057
▁bitch	-9.67166
▁type	-9.67238
Y	-9.67295
▁worried	-9.67671
ful	-9.67874
▁Mo	-9.6799
▁Keep	-9.6811
▁worse	-9.6811
▁decided	-9.68314
▁window	-9.68401
▁throw	-9.68504
▁seeing	-9.68532
▁2	-9.68601
▁favor	-9.68768
▁repetition	-9.68772
▁poor	-9.68795
▁Peter	-9.68803
▁Sam	-9.68863
▁watching	-9.69078
▁Ba	-9.69091
five	-9.691
▁sweet	-9.69196
bo	-9.69425
▁Three	-9.69439
▁future	-9.6944
▁dress	-9.69481
▁felt	-9.69663
▁mad	-9.69757
ee	-9.69772
▁finished	-9.69838
▁dark	-9.70106
▁ring	-9.70274
▁fault	-9.70335
▁structure	-9.70335
▁rent	-9.70388
▁Ben	-9.70538
▁convert	-9.7056
▁longer	-9.70649
▁Shit	-9.70696
▁turned	-9.70748
▁birthday	-9.70787
▁giving	-9.71015
▁practice	-9.71239
▁cop	-9.71417
▁restaurant	-9.71466
▁Besides	-9.71466
▁oh	-9.71493
hi	-9.71717
▁hang	-9.71718
▁Perhaps	-9.71922
▁fit	-9.72171
ho	-9.72332
▁Joe	-9.72623
▁goin	-9.72688
ig	-9.73052
▁measures	-9.73053
▁matrix	-9.73072
▁respect	-9.73316
▁summer	-9.73535
▁mistake	-9.74154
time	-9.74249
▁boat	-9.74278
▁manager	-9.74293
▁land	-9.74363
▁Remember	-9.74704
▁Sounds	-9.74705
▁murder	-9.74752
rs	-9.74774
▁given	-9.74799
▁join	-9.74825
▁state	-9.75039
▁6	-9.75078
for	-9.75142
▁Certainly	-9.75175
▁sequence	-9.75177
▁spaced	-9.75178
▁favorite	-9.75179
▁careful	-9.75381
▁interest	-9.75539
ow	-9.75573
ped	-9.75613
▁transform	-9.75632
▁operating	-9.75653
▁U	-9.75704
ted	-9.75789
▁broke	-9.7588
▁college	-9.75885
▁expensive	-9.76125
▁loop	-9.76128
▁Con	-9.76209
▁feet	-9.76246
▁N	-9.76459
▁Rose	-9.76522
▁caught	-9.76603
▁Smith	-9.76604
▁Daddy	-9.76614
▁i	-9.76689
▁fix	-9.76692
ance	-9.767
▁Y	-9.76719
▁smell	-9.77082
▁Am	-9.77192
▁Ra	-9.77201
▁dad	-9.77272
▁Whatever	-9.77323
▁middle	-9.77323
▁department	-9.77324
▁Jim	-9.77327
▁dis	-9.77514
▁others	-9.77563
▁Hell	-9.77656
▁difficult	-9.77797
▁kept	-9.77807
▁sun	-9.77856
▁unit	-9.7794
ster	-9.78113
ard	-9.78181
?"	-9.78578
▁reading	-9.7867
▁contract	-9.78781
▁forgot	-9.78907
▁honest	-9.78967
▁weather	-9.79026
▁programming	-9.79027
▁La	-9.79332
▁America	-9.79454
what	-9.79473
▁manages	-9.79485
▁CPU	-9.79518
▁procrastination	-9.79518
▁API	-9.79518
▁size	-9.79598
▁changed	-9.79598
▁single	-9.79791
▁marry	-9.8002
▁19	-9.8008
▁quit	-9.8017
▁Christmas	-9.80261
▁certain	-9.8045
▁begin	-9.80538
▁Too	-9.80661
▁large	-9.80925
▁loved	-9.81035
▁integral	-9.81259
ni	-9.81376
ated	-9.8139
▁Call	-9.81418
▁nine	-9.81593
▁ex	-9.81596
▁Friday	-9.81771
▁fish	-9.82072
▁age	-9.82159
▁major	-9.82268
▁private	-9.82268
▁probability	-9.82268
▁market	-9.82316
▁20	-9.82331
▁Ro	-9.8239
▁distribution	-9.82522
▁gradient	-9.82522
▁prepare	-9.82525
▁strong	-9.82686
▁moving	-9.82778
▁rich	-9.82784
▁H	-9.8303
▁doubt	-9.83031
▁module	-9.83031
▁situation	-9.83031
▁sub	-9.83286
▁history	-9.83288
▁gift	-9.83544
▁RAM	-9.83545
▁art	-9.83597
▁Al	-9.83626
▁4	-9.83655
▁talked	-9.83704
▁works	-9.83748
▁Boy	-9.83878
▁fair	-9.83914
▁Po	-9.83956
▁Michael	-9.84058
▁imaginary	-9.84058
▁8	-9.84195
▁owe	-9.84339
▁instead	-9.84375
▁carry	-9.84448
▁compiler	-9.84576
▁variable	-9.84576
▁completely	-9.84611
▁Big	-9.84639
▁accept	-9.84659
▁strange	-9.84669
▁Put	-9.8484
▁during	-9.84842
▁pain	-9.84861
▁controls	-9.84889
men	-9.84936
▁Anyway	-9.85104
▁Forget	-9.85368
▁anywhere	-9.85378
▁movies	-9.85452
▁King	-9.85539
ivergence	-9.8562
▁Think	-9.8562
▁travel	-9.85624
ph	-9.85656
▁bill	-9.85725
▁prove	-9.85783
▁tough	-9.85942
!!!	-9.86003
▁share	-9.86149
dy	-9.86381
▁public	-9.86395
▁avoid	-9.86408
▁shop	-9.86409
ga	-9.8641
▁1	-9.86522
▁quiet	-9.8661
▁ice	-9.86735
▁hasn	-9.86776
▁count	-9.8678
▁functions	-9.86955
ba	-9.86969
pa	-9.86986
▁pointer	-9.87121
▁finally	-9.87246
▁7	-9.8726
▁terms	-9.87469
way	-9.87475
▁outta	-9.87487
▁box	-9.87709
▁imagine	-9.87738
▁contact	-9.87738
▁film	-9.87788
▁ideas	-9.87844
▁dictionary	-9.88006
▁equation	-9.88006
▁radio	-9.88275
▁thread	-9.88276
cause	-9.88367
un	-9.88544
▁Memory	-9.88544
▁born	-9.88555
▁Lapla	-9.8866
▁Mi	-9.88672
usable	-9.88816
▁Mother	-9.88821
▁bullshit	-9.89086
▁driving	-9.89089
▁quick	-9.89295
▁forward	-9.89335
▁allocate	-9.89358
bb	-9.89398
▁voice	-9.89631
▁sitting	-9.89684
ca	-9.89864
▁lawyer	-9.89904
but	-9.90063
▁Damn	-9.90178
▁upset	-9.90238
▁takes	-9.90403
▁b	-9.90447
▁eigenvalue	-9.90452
▁several	-9.90452
▁pre	-9.90572
It	-9.90761
oncurrency	-9.91004
▁Charlie	-9.91004
▁Hold	-9.91012
▁choose	-9.91281
▁nervous	-9.91281
▁swear	-9.91281
▁White	-9.91284
▁wake	-9.91285
qui	-9.91477
▁space	-9.91565
ze	-9.91655
▁star	-9.91676
▁itself	-9.91754
▁extra	-9.91988
▁French	-9.92116
▁ought	-9.92348
▁court	-9.92397
▁dangerous	-9.924
▁attention	-9.92677
▁color	-9.9269
▁direction	-9.92699
▁Ta	-9.92733
land	-9.92795
▁doin	-9.92959
▁needed	-9.93125
▁Mister	-9.93251
▁differential	-9.93259
▁signal	-9.93345
▁fat	-9.93434
▁taste	-9.9345
What	-9.93476
▁happening	-9.93611
▁girlfriend	-9.93815
▁involved	-9.93874
ial	-9.94077
▁algorithm	-9.94094
▁reservation	-9.94094
▁bucks	-9.94201
▁wine	-9.9424
▁Saturday	-9.9438
▁blue	-9.9438
▁realize	-9.94415
▁ran	-9.94476
8	-9.94617
uck	-9.94642
▁sake	-9.94724
▁teacher	-9.94867
▁y	-9.94921
▁f	-9.9494
▁Someone	-9.9497
▁rain	-9.95044
act	-9.95205
▁available	-9.95242
cursion	-9.95242
▁James	-9.95244
▁Mar	-9.95486
▁vacation	-9.95531
▁excuse	-9.95531
▁Bo	-9.95693
▁drunk	-9.9582
▁hurry	-9.95822
▁Walter	-9.95825
▁wedding	-9.95888
▁wondering	-9.95893
▁fucked	-9.95918
ea	-9.95957
ah	-9.96005
▁Jimmy	-9.96117
▁nose	-9.96673
▁insurance	-9.96695
▁brain	-9.96711
▁miles	-9.97006
that	-9.97052
▁notice	-9.97199
▁runs	-9.97262
▁chicken	-9.97292
▁ho	-9.9735
ver	-9.975
▁decision	-9.97577
▁smoke	-9.97578
▁asshole	-9.97583
▁board	-9.97695
▁liked	-9.97888
▁weird	-9.97888
▁changes	-9.97927
▁fly	-9.98026
▁reach	-9.9811
▁whether	-9.9817
ger	-9.98178
▁appointment	-9.98468
▁Everybody	-9.98469
▁cops	-9.98621
▁except	-9.98666
▁Bye	-9.98881
▁attack	-9.98912
▁source	-9.99066
▁El	-9.99071
▁fear	-9.99074
▁teach	-9.99113
▁manage	-9.9917
▁rate	-9.99174
▁studying	-9.99228
▁Le	-9.99376
pi	-9.99456
▁suggest	-9.9949
▁mention	-9.99529
▁Mike	-9.99588
▁bastard	-9.99667
▁General	-9.99668
▁lay	-9.99682
▁warm	-9.999
ize	-10.0017
va	-10.0017
▁fifteen	-10.0027
▁[	-10.0028
▁beer	-10.0033
▁staying	-10.004
▁Ca	-10.0057
▁double	-10.0058
que	-10.0059
▁decide	-10.006
▁Last	-10.0061
ach	-10.0069
▁la	-10.0071
di	-10.0093
▁Ray	-10.0099
▁roll	-10.0102
▁truck	-10.0119
▁advice	-10.0119
▁pictures	-10.0133
▁po	-10.016
▁War	-10.017
▁Nick	-10.0173
▁Z	-10.0174
▁stopped	-10.0183
▁THE	-10.0186
▁killer	-10.019
▁More	-10.0192
▁arm	-10.0198
▁Try	-10.02
ite	-10.0208
cu	-10.0209
▁grand	-10.0211
▁deep	-10.0227
▁across	-10.0236
▁third	-10.0242
▁cell	-10.0242
▁cat	-10.0245
▁program	-10.0255
▁Goodbye	-10.0276
▁protect	-10.0282
▁pal	-10.0292
▁ok	-10.0293
line	-10.0304
lin	-10.0315
▁park	-10.0334
▁breakfast	-10.0335
▁writing	-10.0367
▁hungry	-10.0367
▁cup	-10.0372
▁moved	-10.0378
▁discuss	-10.038
ble	-10.0395
▁plenty	-10.0398
ley	-10.0401
▁grow	-10.0404
ten	-10.041
huh	-10.0419
▁killing	-10.0435
ng	-10.0461
▁lying	-10.0462
▁ground	-10.0463
▁figured	-10.0464
▁club	-10.0493
▁lovely	-10.0508
ring	-10.0511
▁round	-10.0527
▁forty	-10.0549
▁wind	-10.055
▁slow	-10.0555
▁perhaps	-10.0557
▁Johnny	-10.0558
▁Da	-10.0564
▁press	-10.0566
▁shoes	-10.0572
▁plans	-10.0588
▁jail	-10.059
▁ch	-10.0607
▁mess	-10.0619
▁beginning	-10.0622
▁Car	-10.0623
▁gotten	-10.064
▁absolutely	-10.0654
▁create	-10.0658
▁surprise	-10.0658
▁lived	-10.0687
▁spot	-10.0689
▁missed	-10.0692
▁en	-10.0693
▁wearing	-10.0697
ors	-10.0707
▁Vi	-10.0709
▁Sal	-10.0715
bu	-10.0738
▁weight	-10.0738
know	-10.0746
▁kiss	-10.0749
▁Max	-10.0751
▁sales	-10.0752
▁post	-10.0772
J	-10.0779
my	-10.0779
▁tape	-10.0789
▁percent	-10.0816
▁government	-10.0816
V	-10.0831
▁Everyone	-10.085
▁unless	-10.0853
9	-10.086
ally	-10.0864
ick	-10.0872
▁camera	-10.0895
king	-10.0937
▁training	-10.0955
▁totally	-10.096
▁learned	-10.0965
▁yuan	-10.0982
▁shopping	-10.0982
▁officer	-10.1002
▁especially	-10.1015
▁exercise	-10.1015
▁spent	-10.1015
▁speaking	-10.1019
▁exception	-10.1027
▁Should	-10.1042
ating	-10.1053
▁deposit	-10.1079
▁Exactly	-10.1083
▁famous	-10.1083
▁project	-10.1083
ac	-10.1104
ping	-10.1113
▁corner	-10.1121
▁broken	-10.1125
kin	-10.1125
▁picked	-10.1134
▁consider	-10.1144
of	-10.1145
▁bottle	-10.115
▁Next	-10.115
und	-10.1153
▁honor	-10.1171
▁low	-10.1175
▁focus	-10.1184
▁risk	-10.1184
▁local	-10.1184
▁view	-10.1185
▁Want	-10.1186
▁bunch	-10.119
▁sea	-10.1198
▁relationship	-10.1218
▁twelve	-10.1218
▁Father	-10.1219
▁parts	-10.1224
▁pro	-10.1225
pl	-10.1229
▁sin	-10.123
▁meant	-10.1233
▁rid	-10.1243
▁wrote	-10.1253
▁contain	-10.1253
▁style	-10.1253
▁solve	-10.1256
▁Stay	-10.1257
▁listening	-10.1258
▁Hu	-10.126
▁kitchen	-10.1287
▁marriage	-10.1287
▁gas	-10.1288
ex	-10.1294
▁main	-10.1302
ide	-10.1351
▁Jake	-10.1357
ass	-10.136
▁condition	-10.1365
fi	-10.1372
▁mo	-10.1376
▁treat	-10.1386
▁laugh	-10.1389
▁Honey	-10.1391
▁Black	-10.1391
head	-10.14
ang	-10.1418
▁group	-10.1426
▁blame	-10.1427
ular	-10.1428
▁none	-10.143
▁r	-10.1433
ip	-10.1439
all	-10.1448
ning	-10.1458
▁fresh	-10.1461
▁desk	-10.1461
▁lead	-10.1487
▁standing	-10.1492
▁Na	-10.1493
We	-10.1507
▁Most	-10.1529
▁twice	-10.1531
▁Five	-10.1535
▁Once	-10.1537
▁recommend	-10.1547
ship	-10.156
▁god	-10.1564
▁London	-10.1566
▁instructions	-10.1566
▁joke	-10.1583
▁missing	-10.1588
▁kinda	-10.1595
▁dumb	-10.1602
▁Since	-10.1602
"?	-10.1605
tion	-10.161
▁walking	-10.1616
▁eating	-10.1629
pp	-10.1636
▁cook	-10.1672
▁practicing	-10.1673
▁planning	-10.1674
▁li	-10.1679
▁copy	-10.169
▁wall	-10.17
▁afford	-10.1709
side	-10.1735
▁Ga	-10.1736
▁games	-10.1745
▁crime	-10.1745
▁fell	-10.1765
▁Eddie	-10.1781
ler	-10.1782
▁calls	-10.1784
▁named	-10.1785
ile	-10.1785
▁9	-10.1789
▁hole	-10.1793
▁dollar	-10.18
▁lo	-10.1803
▁remind	-10.1811
▁glass	-10.1813
▁bathroom	-10.1817
so	-10.182
▁hadn	-10.1822
▁horse	-10.1842
con	-10.1843
▁stock	-10.1854
▁foot	-10.1854
▁definitely	-10.1854
▁%	-10.1855
▁San	-10.1868
▁amazing	-10.189
▁amount	-10.189
▁software	-10.189
▁Love	-10.1898
▁correct	-10.192
▁V	-10.1926
▁instance	-10.1927
▁Pa	-10.1935
▁awful	-10.1939
▁imp	-10.1939
▁nothin	-10.196
▁patient	-10.1963
▁Out	-10.1964
▁hi	-10.1977
▁30	-10.1978
▁Welcome	-10.2
▁hardly	-10.2003
fe	-10.202
▁health	-10.2029
▁heavy	-10.2037
▁stuck	-10.2037
▁Aren	-10.2044
▁soul	-10.2047
▁cross	-10.206
ER	-10.2061
▁cheap	-10.2065
▁entire	-10.2068
▁ourselves	-10.2074
▁foreign	-10.2074
▁darling	-10.2075
▁organize	-10.2078
▁issue	-10.2079
▁eh	-10.2092
▁Lo	-10.2094
▁Monday	-10.2112
▁beach	-10.2114
gg	-10.2119
cha	-10.2141
▁song	-10.2143
▁leg	-10.2146
▁opinion	-10.2149
▁bomb	-10.2149
▁popular	-10.215
▁Lord	-10.215
▁active	-10.2151
▁Paris	-10.2156
▁gold	-10.2163
▁safely	-10.2163
▁waste	-10.2176
▁partner	-10.2181
▁page	-10.2185
▁support	-10.2187
▁green	-10.2187
▁print	-10.2211
▁Ed	-10.2221
▁self	-10.2225
▁relax	-10.2226
▁mail	-10.2232
ey	-10.2257
▁within	-10.226
▁tie	-10.226
▁security	-10.2262
▁method	-10.2262
▁level	-10.2263
▁boyfriend	-10.2263
▁jump	-10.2264
▁agent	-10.2265
▁sing	-10.2283
wi	-10.229
But	-10.2296
RE	-10.2312
▁Ne	-10.2315
tch	-10.2327
,"	-10.2339
ING	-10.234
▁Prepar	-10.2341
▁tight	-10.2344
lation	-10.2344
▁15	-10.2346
▁th	-10.2351
io	-10.2363
▁Watch	-10.2377
▁Ex	-10.238
▁tour	-10.2391
▁skin	-10.2393
off	-10.2407
▁Before	-10.2415
▁Beijing	-10.2415
▁Leave	-10.2415
▁City	-10.2428
▁admit	-10.245
▁kick	-10.2457
]	-10.2469
▁sale	-10.249
▁Shall	-10.2515
▁12	-10.2517
▁career	-10.2519
▁traffic	-10.2532
▁Sunday	-10.2532
▁Sa	-10.2539
ak	-10.2571
▁excited	-10.2571
▁fellow	-10.2571
▁dying	-10.2572
▁promised	-10.2594
▁asleep	-10.261
▁silly	-10.261
▁neck	-10.2611
▁meat	-10.2615
▁sad	-10.2617
▁band	-10.2622
▁sh	-10.2624
▁prison	-10.2643
▁Un	-10.2651
▁earth	-10.2651
▁Over	-10.2652
ions	-10.2661
▁Um	-10.2673
▁saved	-10.2674
▁vi	-10.2678
▁communicate	-10.2689
▁subject	-10.2689
▁hide	-10.2694
▁Pro	-10.271
▁Th	-10.2716
▁products	-10.2721
▁final	-10.2722
▁somethin	-10.2725
▁Street	-10.2729
▁shirt	-10.2729
▁papers	-10.2732
▁normal	-10.2763
work	-10.2765
▁stories	-10.2768
▁angry	-10.2768
min	-10.2771
ran	-10.2776
▁lock	-10.2783
▁Bu	-10.2805
▁match	-10.2806
▁lamb	-10.2808
▁comfortable	-10.2809
▁rock	-10.2818
▁note	-10.2822
▁driver	-10.2837
▁;	-10.284
▁surprised	-10.2843
▁built	-10.2849
▁provide	-10.2864
ism	-10.288
▁lately	-10.2881
▁tickets	-10.2886
▁Absolutely	-10.2889
▁common	-10.289
▁due	-10.2902
▁trick	-10.291
over	-10.2913
▁hat	-10.2917
".	-10.2922
▁idiot	-10.2929
▁forgive	-10.2929
▁rules	-10.293
▁Must	-10.2934
▁willing	-10.2938
ence	-10.2949
▁Sit	-10.2961
com	-10.2969
▁further	-10.297
▁Probably	-10.297
▁Lee	-10.2973
▁planet	-10.2982
▁places	-10.2997
▁character	-10.3011
▁Somebody	-10.3011
▁raise	-10.3024
house	-10.3048
bout	-10.305
▁salary	-10.3052
▁Help	-10.3052
▁Has	-10.306
▁force	-10.3068
▁Ya	-10.3074
▁knock	-10.3077
▁actions	-10.3081
der	-10.3087
▁evidence	-10.3093
▁trade	-10.3093
▁winter	-10.3096
ities	-10.3106
▁plant	-10.3125
▁apologize	-10.3135
▁airport	-10.3135
▁burn	-10.314
▁Mac	-10.3157
▁seconds	-10.3161
▁temporary	-10.3176
▁paying	-10.3177
▁Still	-10.3177
▁topics	-10.3178
▁dry	-10.3183
▁ra	-10.3188
▁pounds	-10.3189
ice	-10.3191
▁Red	-10.3199
old	-10.3205
let	-10.3207
▁loose	-10.3218
▁)	-10.3218
▁quickly	-10.3227
▁pair	-10.3233
▁orders	-10.3245
▁collect	-10.3255
▁Time	-10.3258
▁Du	-10.3264
rd	-10.3272
▁Cha	-10.3281
well	-10.3288
▁closed	-10.329
▁execute	-10.3301
▁apply	-10.3301
▁Six	-10.3302
▁Back	-10.3304
▁finger	-10.3318
▁Looks	-10.3323
▁played	-10.3334
▁Better	-10.3344
▁acting	-10.3344
▁Se	-10.335
▁Eve	-10.3355
▁drugs	-10.3356
▁crap	-10.3387
▁Billy	-10.3406
ron	-10.342
▁Louis	-10.3423
▁necessary	-10.3428
lt	-10.3434
▁Ted	-10.3483
▁army	-10.3483
val	-10.3484
▁Hmm	-10.3484
▁schedule	-10.3486
ny	-10.349
ible	-10.3493
▁sold	-10.35
▁camp	-10.3514
▁Charles	-10.3514
▁evil	-10.3514
▁quality	-10.3514
▁Buddy	-10.3514
▁bedroom	-10.3516
uh	-10.3523
▁tip	-10.3545
gen	-10.3552
▁Chief	-10.3557
▁frequency	-10.3557
▁holiday	-10.3557
▁responsible	-10.3557
gan	-10.3561
ute	-10.3566
▁Day	-10.3574
▁Were	-10.358
ized	-10.3588
ya	-10.3596
▁holding	-10.3599
▁forever	-10.36
▁excellent	-10.36
▁example	-10.3601
▁daddy	-10.3602
▁partial	-10.3604
▁deserve	-10.3616
ise	-10.3639
▁hardware	-10.3645
▁Carl	-10.3649
▁50	-10.365
our	-10.3655
▁dreams	-10.3658
ina	-10.3668
▁drinking	-10.3672
ious	-10.3675
▁bear	-10.3684
▁proud	-10.3688
▁recently	-10.3689
ap	-10.3703
▁Ten	-10.3708
▁particular	-10.3725
▁Tomorrow	-10.3731
▁suspect	-10.3731
▁NO	-10.3738
▁push	-10.3739
▁represents	-10.375
▁build	-10.3755
bi	-10.3758
▁heat	-10.3761
▁da	-10.3771
▁Turn	-10.3776
▁Alex	-10.3776
▁Dick	-10.3776
▁lots	-10.3778
▁fired	-10.3784
ries	-10.3792
▁fighting	-10.3793
▁checked	-10.3794
▁Learn	-10.382
▁pressure	-10.382
ump	-10.3822
▁professional	-10.3825
▁Ms	-10.3858
▁cute	-10.3863
▁Twenty	-10.3864
▁retention	-10.3864
▁approaches	-10.3866
▁soft	-10.3867
▁sight	-10.3875
▁clock	-10.3876
▁Ti	-10.3877
▁Sid	-10.3877
▁Doesn	-10.3885
▁Spaced	-10.3889
▁student	-10.3896
▁define	-10.3909
▁cr	-10.3928
▁Aw	-10.3938
▁nuts	-10.3942
▁tree	-10.3947
▁breath	-10.395
And	-10.3951
▁church	-10.3954
▁Susan	-10.3954
▁Jerry	-10.3954
▁passport	-10.3954
▁pen	-10.3966
▁serve	-10.3972
▁Check	-10.4
▁loan	-10.4001
▁mission	-10.4009
▁folks	-10.4011
▁Di	-10.4011
led	-10.4022
▁100	-10.403
▁multipl	-10.4041
▁exciting	-10.4044
▁license	-10.4044
▁staff	-10.4044
ose	-10.4056
ain	-10.4067
▁design	-10.4074
ign	-10.4077
▁noticed	-10.4088
▁rush	-10.4089
▁calm	-10.409
▁crack	-10.409
▁inter	-10.4092
▁complete	-10.4101
▁records	-10.4122
▁walked	-10.4125
▁nurse	-10.4135
▁approximate	-10.4135
▁buddy	-10.4135
▁components	-10.4135
▁impossible	-10.4135
▁pool	-10.4136
▁exist	-10.4139
nomi	-10.414
▁fee	-10.4141
▁oil	-10.4143
▁belong	-10.4143
▁poly	-10.4144
ld	-10.4147
light	-10.4159
not	-10.4161
▁Jane	-10.4168
▁passed	-10.417
▁natural	-10.4175
..."	-10.4175
step	-10.4176
▁speed	-10.4181
▁array	-10.4181
▁errors	-10.4181
she	-10.4184
▁Star	-10.4187
▁pack	-10.4192
▁add	-10.4195
nd	-10.4199
▁coat	-10.4204
ab	-10.422
les	-10.4223
▁quarter	-10.4227
▁brand	-10.4227
▁Exception	-10.4228
▁pa	-10.4231
▁seemed	-10.4238
▁peace	-10.4243
▁scene	-10.4272
▁receipt	-10.4273
▁telephone	-10.4273
▁Richard	-10.4274
▁wild	-10.4274
▁Tr	-10.4281
ned	-10.4313
▁Washington	-10.432
▁Che	-10.4322
▁cake	-10.4323
▁fella	-10.4325
▁keeping	-10.4342
▁West	-10.4345
▁goals	-10.4358
▁newspaper	-10.4364
▁Major	-10.4367
▁university	-10.4367
▁inheritance	-10.4367
▁Robert	-10.4367
▁duty	-10.4367
▁Ever	-10.4369
can	-10.4374
▁buying	-10.4385
▁steal	-10.4392
▁Pe	-10.441
▁rule	-10.4413
▁smoking	-10.4415
▁wash	-10.4428
▁allows	-10.4445
ight	-10.4451
▁vote	-10.4452
▁accumulate	-10.4461
▁familiar	-10.4461
▁opportunity	-10.4461
▁simply	-10.4461
ture	-10.4462
▁Show	-10.4464
▁concerned	-10.4475
▁comp	-10.4475
▁sometime	-10.4487
▁Mu	-10.4491
▁Fe	-10.4495
▁blind	-10.4508
▁ridiculous	-10.4508
▁split	-10.4508
right	-10.4514
▁depends	-10.4533
▁pe	-10.4533
▁talkin	-10.4539
▁Fa	-10.4542
▁fan	-10.4545
▁continue	-10.4548
how	-10.4548
▁regular	-10.4549
▁apart	-10.4554
▁(	-10.4556
▁Betty	-10.4556
▁Believe	-10.4604
▁television	-10.4604
▁Green	-10.4604
▁exchange	-10.4604
▁chair	-10.4604
▁map	-10.4614
▁flowers	-10.4615
▁Mark	-10.4616
▁king	-10.4631
▁destroy	-10.4636
law	-10.465
▁pocket	-10.4652
▁performance	-10.4652
▁operation	-10.4652
▁lift	-10.4652
▁cry	-10.4654
▁search	-10.4679
He	-10.4682
▁ta	-10.4688
▁pulled	-10.4688
▁Pi	-10.4688
▁cab	-10.469
▁California	-10.47
▁conversation	-10.47
▁freak	-10.47
▁Daniel	-10.47
▁X	-10.4703
▁bigger	-10.4706
▁details	-10.4706
▁pop	-10.4706
▁sleeping	-10.4715
ai	-10.4725
▁cards	-10.4732
board	-10.4741
▁Avoid	-10.4749
▁Earth	-10.4749
▁recognize	-10.4749
▁purpose	-10.4749
▁milk	-10.4749
▁cream	-10.4749
▁House	-10.4749
▁Another	-10.475
▁Long	-10.4752
▁attend	-10.4752
▁herself	-10.4754
▁extract	-10.4771
ever	-10.4773
eg	-10.4777
>...	-10.4794
▁port	-10.4795
▁worst	-10.4797
▁rectang	-10.4797
▁immediately	-10.4799
▁bi	-10.4802
▁product	-10.4805
day	-10.4812
rk	-10.4814
rate	-10.4818
▁Ask	-10.4821
▁held	-10.4827
▁mu	-10.4834
▁Tuesday	-10.4846
▁Uncle	-10.4846
▁medicine	-10.4846
▁package	-10.4847
▁hoping	-10.4854
▁shower	-10.4855
▁ba	-10.4877
▁pairs	-10.4878
▁South	-10.4895
▁em	-10.4895
▁Guess	-10.4896
▁comprehension	-10.4896
▁shape	-10.4896
▁efficiently	-10.4897
▁snow	-10.4901
▁repeats	-10.491
ical	-10.4913
ory	-10.4923
▁Ni	-10.4924
ook	-10.4933
▁Little	-10.4945
▁command	-10.4945
▁Henry	-10.4945
▁helped	-10.4952
▁transfer	-10.4953
LL	-10.4955
▁island	-10.497
ock	-10.4981
▁hello	-10.4988
▁Sha	-10.4991
▁Pretty	-10.4995
▁taught	-10.4997
▁allowed	-10.501
▁Andy	-10.5016
den	-10.5027
▁scales	-10.5041
▁expected	-10.5043
▁easier	-10.5045
▁Brad	-10.5045
▁nature	-10.5045
back	-10.5046
▁dirty	-10.5049
▁bath	-10.5051
▁Ri	-10.5052
▁Dude	-10.5055
/	-10.5062
▁block	-10.5063
▁spreads	-10.5083
▁gives	-10.5088
▁Indian	-10.5092
▁garden	-10.5095
▁written	-10.5095
▁crew	-10.5095
▁claim	-10.5096
▁animal	-10.5111
ka	-10.5113
end	-10.5113
▁older	-10.5114
cy	-10.5122
▁arrest	-10.513
▁Ann	-10.5131
▁v	-10.5135
▁grows	-10.5142
▁bottom	-10.5146
▁teeth	-10.5146
▁score	-10.5146
▁soup	-10.5148
▁process	-10.5149
wa	-10.5149
nder	-10.517
nch	-10.5183
▁showed	-10.5192
▁player	-10.5192
▁allow	-10.5195
▁Lieutenant	-10.5196
solving	-10.5196
▁loud	-10.5196
▁Tommy	-10.5198
▁Bobby	-10.5198
▁US	-10.52
ker	-10.5202
▁locked	-10.5216
▁States	-10.5216
▁Del	-10.5217
▁payment	-10.5219
▁Bar	-10.5226
▁dump	-10.5234
▁fi	-10.5237
▁pin	-10.5238
room	-10.524
▁neither	-10.5247
▁themselves	-10.5247
▁upstairs	-10.5247
▁Brown	-10.5247
▁Talk	-10.5248
▁processe	-10.5251
▁action	-10.5259
▁damage	-10.527
▁onto	-10.5273
▁pet	-10.5287
▁Br	-10.529
gged	-10.5293
her	-10.5297
▁river	-10.5299
▁usual	-10.53
ane	-10.53
ties	-10.5305
▁keeps	-10.531
▁hall	-10.5318
▁Martin	-10.5339
▁stole	-10.5344
bye	-10.5349
▁likelihood	-10.535
▁video	-10.535
▁current	-10.535
▁losing	-10.5351
▁preserved	-10.5354
▁200	-10.5362
▁sports	-10.5377
q	-10.5383
che	-10.5384
▁guns	-10.5386
▁FBI	-10.5402
▁execution	-10.5402
▁fruit	-10.5402
▁Old	-10.5404
▁k	-10.5404
▁TO	-10.5411
▁concern	-10.5439
▁witness	-10.545
ay	-10.5454
▁boring	-10.5455
How	-10.5456
▁spare	-10.5478
Cause	-10.5502
▁earlier	-10.5506
▁policy	-10.5506
▁remain	-10.5506
▁outcomes	-10.5507
▁na	-10.5507
▁pig	-10.5509
▁stone	-10.5513
▁cars	-10.5516
ative	-10.5519
ki	-10.5521
▁expecting	-10.5523
▁va	-10.5524
▁lu	-10.5532
▁fashion	-10.5532
▁relate	-10.5534
▁direct	-10.5534
▁wire	-10.5535
▁deliver	-10.5535
▁feelings	-10.554
▁Up	-10.5551
value	-10.5554
▁bat	-10.5557
▁Thursday	-10.5559
▁empty	-10.5559
▁stomach	-10.5559
▁summarize	-10.5559
▁bright	-10.556
▁Pop	-10.5562
▁transformation	-10.5563
▁grab	-10.5568
▁prepared	-10.557
▁ill	-10.5573
▁dig	-10.5576
▁letters	-10.5576
▁Ain	-10.5583
▁fr	-10.5588
ward	-10.559
▁criminal	-10.5612
▁pan	-10.5617
▁hey	-10.5628
▁seriously	-10.5638
▁periodic	-10.5638
oc	-10.5639
▁cousin	-10.5665
▁Slic	-10.5666
▁rough	-10.5666
▁ear	-10.567
tle	-10.5675
▁legs	-10.5679
▁noise	-10.5681
rch	-10.5692
▁bite	-10.5695
▁general	-10.5712
▁pieces	-10.5714
▁w	-10.5717
otivation	-10.5719
▁computation	-10.5719
▁heaven	-10.5719
▁mood	-10.5719
▁motivated	-10.572
▁Bank	-10.572
▁complexity	-10.5723
ction	-10.5736
ug	-10.5745
ung	-10.575
ric	-10.5755
▁Doc	-10.5756
▁State	-10.5763
rr	-10.5768
▁non	-10.5769
▁switch	-10.5772
▁dozen	-10.5773
▁Things	-10.5773
▁dick	-10.5777
ium	-10.5781
▁Kill	-10.5784
▁taxi	-10.5789
▁feed	-10.5805
▁higher	-10.5822
▁Happy	-10.5826
▁horrible	-10.5826
▁slicing	-10.5826
▁speech	-10.5826
▁United	-10.5826
▁uncle	-10.5826
▁Russian	-10.5829
▁Steven	-10.5831
▁model	-10.5832
▁hero	-10.5836
▁mis	-10.5837
▁kinds	-10.5839
▁lets	-10.5849
▁bo	-10.5851
▁Dave	-10.586
▁Blue	-10.5881
▁biggest	-10.5881
▁magnitude	-10.5881
▁countries	-10.5881
▁Jeff	-10.5882
▁learning	-10.5882
▁master	-10.5884
No	-10.5897
▁weak	-10.5905
▁objects	-10.5917
▁German	-10.5927
▁convenient	-10.5935
▁research	-10.5935
▁detective	-10.5936
▁Jason	-10.5936
▁gu	-10.5939
▁moon	-10.5941
▁scare	-10.5948
▁rat	-10.5957
rry	-10.596
▁greatest	-10.5962
,000	-10.5974
▁drug	-10.5975
▁watched	-10.5977
▁tall	-10.598
like	-10.5986
▁Always	-10.599
▁suddenly	-10.5995
▁Si	-10.6012
▁animals	-10.6028
▁load	-10.6033
▁cents	-10.6038
ray	-10.604
four	-10.6043
▁Yo	-10.6044
▁spirit	-10.6045
don	-10.6045
▁monster	-10.6046
▁everywhere	-10.6047
▁]	-10.6053
▁Congratulations	-10.6053
▁mark	-10.6054
▁n	-10.6057
▁expresse	-10.6064
▁hired	-10.6072
▁grade	-10.6077
▁starts	-10.6085
▁toward	-10.6097
ank	-10.6099
▁danger	-10.61
▁lightweight	-10.6101
▁spring	-10.6101
▁super	-10.6101
▁access	-10.6101
▁season	-10.6103
▁Ja	-10.6105
OR	-10.611
rus	-10.6111
▁stayed	-10.6115
▁Same	-10.6121
▁Gee	-10.6125
nce	-10.6126
▁screw	-10.6142
two	-10.6145
lock	-10.6149
▁eggs	-10.6155
▁Bruce	-10.6157
▁England	-10.6157
▁Sheriff	-10.6157
▁desert	-10.6157
▁bridge	-10.6157
▁lights	-10.6171
▁keys	-10.6174
AN	-10.6193
▁bug	-10.6196
▁beauty	-10.6213
▁Eight	-10.6215
▁dropped	-10.6215
▁medical	-10.6215
▁connection	-10.6216
▁Mama	-10.6218
▁legal	-10.6224
▁plate	-10.6234
▁flat	-10.6244
▁hanging	-10.6265
▁Professor	-10.627
▁beyond	-10.627
▁library	-10.627
▁square	-10.627
▁Hotel	-10.627
▁cosine	-10.627
▁swimming	-10.627
▁proof	-10.6271
▁following	-10.6278
▁healthy	-10.6283
boy	-10.6287
▁perfectly	-10.6291
▁counter	-10.6295
▁dogs	-10.6298
▁client	-10.6318
▁draw	-10.6321
▁Except	-10.6325
▁Thomas	-10.6327
▁yard	-10.6332
▁among	-10.6333
▁goodbye	-10.634
▁period	-10.6356
▁Je	-10.6373
▁guest	-10.6378
▁sequences	-10.6383
▁strength	-10.6384
▁innocent	-10.6384
▁neighborhood	-10.6384
▁Find	-10.6384
▁football	-10.6384
▁trial	-10.6386
▁Su	-10.6391
▁IT	-10.6401
dic	-10.6402
ations	-10.6406
▁arrive	-10.6413
So	-10.6423
aw	-10.6427
▁swim	-10.6441
▁Life	-10.6442
hu	-10.6443
▁nail	-10.6443
▁Johnson	-10.6447
▁aware	-10.6453
▁cap	-10.6478
▁loves	-10.6492
▁judge	-10.6497
▁emergency	-10.6499
▁science	-10.6499
▁social	-10.6499
▁firm	-10.6499
▁Son	-10.6503
▁Mc	-10.6523
▁complain	-10.6536
lar	-10.6551
▁guarantee	-10.6557
▁throat	-10.6557
▁Jeffrey	-10.6557
▁Colonel	-10.6557
▁Agent	-10.6557
▁assume	-10.6558
▁feels	-10.6563
▁enjoyed	-10.6612
▁guard	-10.6615
▁scar	-10.6615
▁strike	-10.6616
▁cancel	-10.6618
▁&	-10.6619
▁com	-10.6621
▁meal	-10.6631
▁Holy	-10.6634
▁received	-10.6643
▁original	-10.6644
▁rooms	-10.6653
amp	-10.6661
▁Air	-10.6664
▁possibly	-10.6674
▁Trust	-10.6675
▁gentlemen	-10.6675
▁discount	-10.6675
▁dancing	-10.6675
▁insane	-10.6676
▁gettin	-10.668
▁center	-10.6682
▁Italian	-10.6682
▁beg	-10.669
▁boo	-10.6703
▁divorce	-10.6705
▁settle	-10.6707
▁18	-10.6709
>!	-10.671
ack	-10.6711
▁None	-10.6722
▁madam	-10.673
▁extreme	-10.6734
▁became	-10.6734
▁section	-10.6734
▁ME	-10.6735
▁Today	-10.6736
▁paint	-10.6737
▁online	-10.6743
▁receive	-10.6765
▁invite	-10.6765
▁introduce	-10.6766
▁hire	-10.6771
▁dressed	-10.6775
ot	-10.6775
▁covered	-10.6777
▁bird	-10.6781
▁Los	-10.6791
▁energy	-10.6793
▁nerve	-10.6793
▁jacket	-10.6794
▁Cool	-10.6796
▁shooting	-10.6808
▁students	-10.681
ake	-10.6815
oh	-10.6816
▁Te	-10.6823
ear	-10.6832
▁Nah	-10.6835
▁piss	-10.684
▁hu	-10.6843
problems	-10.6848
▁World	-10.6853
▁lonely	-10.6853
▁Room	-10.6853
▁Guy	-10.6853
▁property	-10.6854
▁laid	-10.6855
▁North	-10.6857
cing	-10.6866
they	-10.689
▁fixed	-10.6892
▁parking	-10.6894
▁helping	-10.6895
▁l	-10.6896
▁writer	-10.6897
▁employees	-10.6903
▁chocolate	-10.6913
▁magic	-10.6913
▁juice	-10.6914
▁Cut	-10.6915
ham	-10.6918
▁shows	-10.6929
▁checking	-10.6931
▁Bring	-10.694
▁invited	-10.6942
▁flying	-10.6956
ney	-10.6958
▁Ju	-10.6979
▁knowledge	-10.6985
▁Gra	-10.7021
▁Senator	-10.7035
▁RIB	-10.7035
▁companies	-10.7035
▁article	-10.7035
▁East	-10.7036
▁standard	-10.7038
▁um	-10.7038
▁magazine	-10.7043
▁Yep	-10.7045
▁Ru	-10.7056
▁Haven	-10.7057
lon	-10.7061
▁crying	-10.7062
▁gra	-10.7073
▁borrow	-10.7081
cc	-10.7081
▁flu	-10.7082
▁opened	-10.7088
▁Sc	-10.7091
ments	-10.7091
▁Marty	-10.7098
▁sixty	-10.7103
gie	-10.7118
▁ears	-10.7123
▁meaning	-10.7141
▁ruin	-10.7142
▁farm	-10.7143
▁Park	-10.715
▁dunno	-10.7158
▁habit	-10.7158
▁above	-10.7159
▁High	-10.7159
▁mostly	-10.7163
unt	-10.7166
▁Pre	-10.7192
▁arms	-10.7198
▁25	-10.7213
▁whose	-10.722
▁Admiral	-10.722
▁ver	-10.7244
▁drinks	-10.726
unk	-10.7267
port	-10.728
▁jealous	-10.7283
▁smile	-10.7283
▁Chi	-10.7285
▁secretary	-10.7285
fa	-10.729
▁Kid	-10.7306
▁customers	-10.731
▁sweat	-10.7323
▁fa	-10.7324
▁spoke	-10.734
▁ways	-10.7341
▁environment	-10.7345
▁luggage	-10.7345
▁application	-10.7345
▁Norman	-10.7348
▁hearing	-10.7349
▁Nope	-10.7352
▁pie	-10.7375
▁opening	-10.7379
▁include	-10.738
nic	-10.7401
use	-10.7405
▁turns	-10.7405
IN	-10.7408
▁positive	-10.7409
▁beef	-10.7409
▁huge	-10.7411
pen	-10.7412
▁Fred	-10.7416
hrew	-10.7421
app	-10.7439
▁Many	-10.7446
▁disappear	-10.7457
▁University	-10.7472
▁Company	-10.7472
▁jerk	-10.7473
▁storm	-10.7474
▁slip	-10.7474
▁comin	-10.7479
tri	-10.7483
▁finding	-10.7486
▁upon	-10.7514
▁wise	-10.7515
▁dealing	-10.7526
some	-10.7533
ill	-10.7535
▁Mexico	-10.7537
▁wheel	-10.7537
▁Bullshit	-10.7537
▁attitude	-10.7537
▁harm	-10.7537
▁Brother	-10.7537
ette	-10.7539
▁pants	-10.754
▁hiding	-10.7545
▁brothers	-10.7556
▁Dan	-10.7578
▁crash	-10.7586
▁carrying	-10.7589
▁education	-10.7601
▁easily	-10.7601
▁DO	-10.7601
▁Harold	-10.7601
▁Grace	-10.7603
▁Open	-10.7603
▁impressed	-10.7605
▁delivery	-10.7612
▁wh	-10.7629
▁Pat	-10.763
▁arrived	-10.7633
▁successful	-10.7635
this	-10.7644
press	-10.7655
▁creature	-10.7666
▁enemy	-10.7666
▁fantastic	-10.7666
▁internet	-10.7666
get	-10.7673
▁pray	-10.7689
▁latest	-10.7689
▁Har	-10.7692
▁rep	-10.7702
▁lied	-10.7721
▁responsibility	-10.7731
▁screen	-10.7732
▁Roger	-10.7733
▁insist	-10.7742
▁reasonable	-10.7744
▁bra	-10.7752
▁Aye	-10.7756
▁painting	-10.7759
▁costs	-10.7762
▁success	-10.7762
rrow	-10.7763
ade	-10.7764
▁base	-10.7774
▁murdered	-10.7774
▁climb	-10.7776
▁van	-10.7782
▁Scott	-10.7787
▁Rick	-10.7792
▁Vegas	-10.7797
▁nightmare	-10.7797
▁curious	-10.7797
▁button	-10.781
▁Ka	-10.7813
▁Hard	-10.7815
▁names	-10.7823
▁turning	-10.783
▁closer	-10.7833
▁classes	-10.7833
down	-10.7836
▁sat	-10.7842
▁di	-10.7848
30	-10.7856
▁bringing	-10.7857
ball	-10.786
▁knife	-10.7863
ient	-10.7863
Do	-10.7873
▁somehow	-10.7881
▁nearly	-10.7887
▁artist	-10.7899
▁escape	-10.7902
▁pretend	-10.7909
▁tax	-10.7912
▁Per	-10.7923
▁files	-10.7928
▁separate	-10.793
ky	-10.7935
nn	-10.7938
▁Poor	-10.7938
ual	-10.7942
▁sooner	-10.7943
▁actor	-10.7956
▁Tim	-10.7957
▁depend	-10.7963
▁mentioned	-10.7964
ging	-10.7966
▁sport	-10.7974
▁ro	-10.7976
▁Bad	-10.7981
▁bust	-10.799
▁reserve	-10.7997
▁drove	-10.7997
▁bodies	-10.7997
▁battle	-10.7998
▁ladies	-10.7998
EN	-10.8
▁according	-10.8
▁Master	-10.8001
▁guests	-10.8006
▁hook	-10.8021
▁fund	-10.8028
▁request	-10.8049
▁sweetheart	-10.8065
▁truly	-10.8065
▁poison	-10.8065
▁assistant	-10.8065
▁Until	-10.8065
▁shake	-10.8065
▁Miles	-10.8066
▁complicated	-10.8067
▁Wouldn	-10.8071
ified	-10.8094
▁pot	-10.8102
▁40	-10.8104
late	-10.8126
▁le	-10.813
▁affair	-10.8133
▁plus	-10.8133
▁terrific	-10.8133
▁fortune	-10.8133
▁eleven	-10.8133
▁pardon	-10.8133
▁Hurry	-10.8133
▁forgotten	-10.8134
▁sword	-10.8135
▁pity	-10.8142
oon	-10.8153
▁lower	-10.8155
▁personally	-10.8155
seven	-10.8172
vy	-10.8175
!"	-10.8176
▁er	-10.8183
rse	-10.8187
▁leaves	-10.8192
gy	-10.8199
▁salad	-10.8201
▁Adam	-10.8202
rri	-10.8207
▁north	-10.8214
▁Mon	-10.8224
▁mountain	-10.8228
▁cooking	-10.8242
▁survive	-10.8242
▁customer	-10.8246
ash	-10.8257
▁Mm	-10.8268
▁proper	-10.8268
▁wide	-10.8271
▁gentleman	-10.8271
▁dude	-10.8271
▁virus	-10.8271
▁headache	-10.8272
▁selling	-10.8276
▁mama	-10.8276
ther	-10.8279
▁lines	-10.8284
fu	-10.8286
"...	-10.8288
▁Yah	-10.8302
▁stars	-10.8302
▁France	-10.8313
eight	-10.8314
▁regret	-10.834
▁Easy	-10.834
▁garage	-10.834
▁Know	-10.834
▁Baby	-10.8342
▁replace	-10.8343
▁Dead	-10.8343
▁downtown	-10.8347
▁Art	-10.8351
▁carefully	-10.836
nge	-10.8385
▁Whoa	-10.8395
▁besides	-10.8403
AT	-10.8403
▁Er	-10.8403
That	-10.8405
town	-10.8408
▁expert	-10.8409
▁pattern	-10.841
▁shame	-10.841
▁bread	-10.841
▁Queen	-10.841
▁pump	-10.8411
▁trap	-10.8415
▁statement	-10.8418
▁bags	-10.8424
ery	-10.8431
▁Had	-10.8444
rin	-10.8448
▁pr	-10.8451
▁degree	-10.8455
▁sudden	-10.8474
spect	-10.8475
▁Europe	-10.8478
▁Buzz	-10.848
▁Lloyd	-10.848
▁Thirty	-10.848
▁disease	-10.848
izing	-10.8482
▁punch	-10.8484
cent	-10.849
art	-10.8504
▁However	-10.8504
cat	-10.852
▁followed	-10.854
▁Leo	-10.8541
▁equipment	-10.8551
▁financial	-10.8551
▁Seven	-10.8551
▁guilty	-10.8554
▁sky	-10.8566
ES	-10.8572
▁Leon	-10.8574
▁arrange	-10.8593
▁lookin	-10.8594
▁repeat	-10.8601
▁Nu	-10.8601
▁Rob	-10.8609
▁dare	-10.8619
▁stress	-10.8622
▁chick	-10.8622
---------------	-10.8622
▁Perfect	-10.8622
▁Relax	-10.8622
▁promotion	-10.8622
▁British	-10.8622
▁Death	-10.8622
▁Linda	-10.8623
▁cigarettes	-10.8623
▁gate	-10.8628
▁specific	-10.8631
▁director	-10.8643
▁Mmm	-10.8662
hole	-10.8675
▁talent	-10.8679
▁lab	-10.868
▁Anna	-10.8682
under	-10.8682
field	-10.8688
mail	-10.8694
▁Majesty	-10.8694
▁blew	-10.8694
▁resume	-10.8694
▁ugly	-10.8694
▁conference	-10.8694
▁sand	-10.8695
▁Danny	-10.8695
▁Army	-10.8697
▁chest	-10.8698
▁falling	-10.8698
ON	-10.871
ong	-10.8721
▁photograph	-10.8748
▁bu	-10.8757
▁se	-10.8757
▁diet	-10.8762
▁attractive	-10.8767
▁indeed	-10.8767
▁guide	-10.8767
▁race	-10.877
▁dishes	-10.8771
▁Annie	-10.8771
▁range	-10.878
▁cla	-10.8785
unch	-10.8787
pro	-10.879
▁fla	-10.8796
▁stranger	-10.8814
▁Bud	-10.882
za	-10.8823
▁fail	-10.8826
▁skills	-10.8833
▁Pete	-10.8834
▁ID	-10.8837
gh	-10.8839
▁Chicago	-10.884
▁Department	-10.884
▁Ryan	-10.884
▁south	-10.884
▁Quite	-10.8843
▁plain	-10.8844
▁obviously	-10.8846
▁Sally	-10.8861
iff	-10.8862
▁Sea	-10.8866
▁theory	-10.8874
▁Van	-10.8884
istic	-10.8889
▁leads	-10.8893
ches	-10.89
▁Gimme	-10.8913
▁buried	-10.8913
▁sneak	-10.8913
▁Luke	-10.8914
▁Goddamn	-10.8914
▁alarm	-10.8914
▁dish	-10.8916
▁picking	-10.8918
year	-10.8919
▁Helen	-10.8919
▁friendly	-10.8923
▁grown	-10.8927
▁answers	-10.8927
til	-10.8934
▁wi	-10.8949
▁jobs	-10.8969
▁balls	-10.8972
ino	-10.8975
▁ended	-10.8977
▁Grant	-10.8981
▁Home	-10.8987
▁Dorothy	-10.8987
▁Wednesday	-10.8987
▁advantage	-10.8987
▁romantic	-10.8987
▁suicide	-10.8987
▁awake	-10.8987
▁demand	-10.8987
▁roof	-10.8988
▁Year	-10.8989
▁liar	-10.899
ula	-10.9002
▁spell	-10.9007
▁Sh	-10.9007
If	-10.9028
▁11	-10.9028
▁reasons	-10.9035
nor	-10.904
▁wound	-10.9047
▁effect	-10.9048
▁detail	-10.9053
▁Steve	-10.9061
▁concert	-10.9062
▁impression	-10.9063
▁Unless	-10.9064
▁birds	-10.908
▁pills	-10.9091
▁faith	-10.91
▁Won	-10.91
ford	-10.9102
j	-10.912
▁shock	-10.9122
▁member	-10.9128
▁physical	-10.9131
▁exact	-10.9132
▁Marsh	-10.9136
▁clever	-10.9137
▁elevator	-10.9137
▁including	-10.9137
▁pleasant	-10.9137
▁release	-10.9137
▁awhile	-10.9137
▁Hollywood	-10.9137
▁shark	-10.9137
▁Alice	-10.9138
▁Tonight	-10.9139
▁seventy	-10.9142
▁results	-10.9144
▁Cause	-10.9145
▁nowhere	-10.9155
▁Han	-10.9158
ably	-10.916
▁Joey	-10.9166
ddle	-10.917
▁du	-10.919
▁ca	-10.9206
cept	-10.9206
▁obvious	-10.9207
fl	-10.9208
▁cheese	-10.9213
▁profit	-10.9213
▁sugar	-10.9213
▁shift	-10.9213
▁tongue	-10.9213
▁commission	-10.9213
▁Sarah	-10.9214
▁Jones	-10.9215
▁weapons	-10.9218
wan	-10.9227
▁pissed	-10.9233
ple	-10.9234
▁Wh	-10.9246
ology	-10.9246
▁advance	-10.9261
▁Ge	-10.9264
▁suck	-10.9268
▁appear	-10.9282
▁Madam	-10.9282
50	-10.9285
▁approach	-10.9285
▁increase	-10.9289
▁incredible	-10.9289
▁unusual	-10.9289
▁pizza	-10.9289
▁title	-10.9289
▁subway	-10.9291
▁Goodnight	-10.9294
▁agreement	-10.9297
▁anti	-10.9302
▁documents	-10.9304
▁clearly	-10.9317
ez	-10.9318
▁fe	-10.9318
▁ate	-10.9344
▁fully	-10.9347
▁inform	-10.9351
▁Sue	-10.9352
rie	-10.9355
▁understanding	-10.9357
▁William	-10.936
▁weapon	-10.9361
ternational	-10.9362
car	-10.9363
▁showing	-10.9363
▁Amy	-10.9364
▁Spock	-10.9366
▁mirror	-10.9366
▁delicious	-10.9366
▁En	-10.9366
▁Larry	-10.9367
▁Also	-10.9368
▁ability	-10.9371
▁im	-10.9378
▁Bur	-10.9399
▁Em	-10.9402
▁younger	-10.9432
▁thin	-10.9436
just	-10.944
▁heads	-10.944
▁bullet	-10.9441
▁author	-10.9442
▁downstairs	-10.9444
▁distance	-10.9444
▁Karl	-10.9444
▁sexual	-10.9446
▁wallet	-10.9446
▁Men	-10.9447
▁sending	-10.9456
▁tear	-10.9469
▁Lou	-10.9477
▁ju	-10.9487
cho	-10.9512
▁intend	-10.9512
tan	-10.9517
▁cigarette	-10.9521
▁Benjamin	-10.9522
▁Second	-10.9522
▁motherfucker	-10.9522
▁piano	-10.9522
▁pregnant	-10.9522
▁president	-10.9522
▁woke	-10.9523
▁Nine	-10.9527
orn	-10.9528
▁term	-10.9529
▁glasses	-10.953
▁gain	-10.9531
gue	-10.9541
nny	-10.9542
▁dust	-10.9546
ying	-10.9548
aving	-10.9552
▁waited	-10.9567
zi	-10.9578
▁prices	-10.958
fuck	-10.9585
▁produce	-10.9588
&	-10.9596
▁steak	-10.9601
▁pilot	-10.9601
▁target	-10.9601
▁image	-10.9601
▁Jean	-10.9602
▁toilet	-10.9605
▁Commander	-10.9605
▁brains	-10.9605
▁reward	-10.9607
▁factory	-10.9608
▁Hope	-10.9609
▁directly	-10.961
▁national	-10.9611
cut	-10.9618
▁powerful	-10.962
▁novel	-10.9621
▁busted	-10.9624
▁shoulder	-10.9627
▁j	-10.9636
▁agreed	-10.9641
top	-10.9666
are	-10.9668
▁leader	-10.9676
▁repair	-10.968
▁warrant	-10.968
▁balance	-10.968
▁Jenny	-10.968
▁bills	-10.9681
▁lake	-10.9682
▁Tony	-10.9684
▁egg	-10.9685
py	-10.9698
▁Hear	-10.9703
▁hurts	-10.9705
▁Ye	-10.9707
lia	-10.9715
▁wa	-10.9716
▁ga	-10.9721
▁vo	-10.9735
ev	-10.9739
▁mix	-10.9748
ons	-10.9758
▁Service	-10.976
▁channel	-10.976
▁effort	-10.976
▁experiment	-10.976
▁desire	-10.976
▁sharp	-10.976
▁Honor	-10.9761
▁gang	-10.9762
▁/	-10.9768
▁fake	-10.978
▁chat	-10.9786
▁matters	-10.9794
▁singing	-10.9808
▁laughing	-10.9809
▁brave	-10.9815
ja	-10.9838
▁terribly	-10.9841
▁urgent	-10.9841
▁mask	-10.9842
▁stolen	-10.985
▁cleaning	-10.9853
▁lesson	-10.9854
▁suits	-10.9857
▁Grand	-10.986
▁HE	-10.9872
hand	-10.991
▁joint	-10.9912
▁vegetables	-10.9912
▁crowd	-10.9913
▁reporter	-10.9917
▁Victor	-10.992
▁admire	-10.9921
▁brown	-10.9922
▁compliment	-10.9922
▁funeral	-10.9922
▁gym	-10.9922
six	-10.9922
▁Gordon	-10.9923
▁cancer	-10.9923
▁Down	-10.9923
▁confused	-10.9928
▁useful	-10.9932
read	-10.9933
▁owner	-10.9942
▁knowing	-10.9971
▁breathe	-10.9972
▁filled	-10.9984
▁museum	-11.0004
▁leak	-11.0004
▁safety	-11.0009
▁loss	-11.0017
▁Far	-11.002
▁Cole	-11.0022
▁believed	-11.0023
▁trees	-11.0026
yes	-11.0027
▁Pri	-11.0036
▁devil	-11.0037
▁bloody	-11.0057
▁stage	-11.0062
▁pure	-11.0063
▁toast	-11.0066
ral	-11.0068
▁cast	-11.0084
▁birth	-11.0086
▁reputation	-11.0086
▁temperature	-11.0086
▁trunk	-11.0086
▁Mickey	-11.0087
▁stink	-11.0087
▁homework	-11.0095
▁frightened	-11.0096
▁offered	-11.0098
▁damned	-11.0098
▁clients	-11.0099
▁photo	-11.01
▁ends	-11.0106
▁destroyed	-11.0113
▁Bi	-11.0116
▁tapes	-11.012
▁streets	-11.0121
▁booked	-11.0134
▁enter	-11.0136
ib	-11.0138
▁trans	-11.0141
▁hill	-11.0152
▁Spa	-11.0158
▁loser	-11.016
ability	-11.0165
point	-11.0167
▁audience	-11.017
▁bargain	-11.017
▁furniture	-11.017
▁satisfied	-11.017
▁crawl	-11.017
▁investigation	-11.017
▁Almost	-11.017
▁Lisa	-11.017
▁decent	-11.0172
▁Santa	-11.0174
▁parties	-11.0184
▁Hang	-11.0185
▁Real	-11.0202
▁Alan	-11.0204
▁menu	-11.0207
hy	-11.0209
▁yo	-11.0209
shit	-11.0211
▁harder	-11.0215
▁conditions	-11.0233
▁Couldn	-11.0237
▁created	-11.0243
pin	-11.0244
▁Earl	-11.0245
▁Japanese	-11.0254
▁slept	-11.0254
▁equal	-11.0254
book	-11.0254
▁otherwise	-11.0257
▁Williams	-11.0257
▁mile	-11.0259
▁thou	-11.0261
▁Ready	-11.0262
▁material	-11.027
night	-11.0273
atic	-11.0275
▁signed	-11.0278
▁wave	-11.029
▁psycho	-11.0292
▁recall	-11.0301
▁official	-11.0332
▁basic	-11.0338
▁Rachel	-11.0339
▁Sergeant	-11.0339
▁garbage	-11.0339
▁Clark	-11.0339
▁plastic	-11.0339
▁recover	-11.0339
▁Sidney	-11.0339
▁Anybody	-11.0339
▁invest	-11.0341
▁theater	-11.0343
▁chain	-11.0347
▁16	-11.0348
▁murderer	-11.035
▁cheaper	-11.0359
▁24	-11.0359
▁becoming	-11.0364
▁sweater	-11.037
▁pleased	-11.0399
▁purchase	-11.0407
▁Elaine	-11.0424
▁Neither	-11.0424
▁families	-11.0424
▁Glad	-11.0424
▁route	-11.0425
▁planned	-11.0426
▁Might	-11.0427
▁Such	-11.0428
▁background	-11.0429
pic	-11.0433
▁spoken	-11.0433
▁Wa	-11.0443
▁Stone	-11.0444
▁reality	-11.0451
low	-11.0461
▁Hall	-11.0465
▁badly	-11.0477
ily	-11.0478
▁mar	-11.0479
▁cure	-11.0486
▁Count	-11.0502
▁formal	-11.0504
▁occasion	-11.051
▁April	-11.051
▁Morning	-11.051
▁creep	-11.051
▁miracle	-11.051
▁ocean	-11.051
▁edge	-11.051
▁spending	-11.053
▁hunt	-11.0531
▁Baron	-11.0532
▁delivered	-11.0536
ram	-11.0538
▁overtime	-11.054
▁Theo	-11.0541
▁burning	-11.0554
▁jam	-11.0557
▁ski	-11.0561
▁Mill	-11.0565
▁Work	-11.0576
▁tests	-11.0579
▁Rome	-11.0597
▁hung	-11.0597
▁attorney	-11.0597
▁intention	-11.0597
▁Mitchell	-11.0597
▁rub	-11.0598
▁Under	-11.0599
VE	-11.0614
▁nut	-11.0623
▁cha	-11.0626
▁cable	-11.0627
▁burned	-11.063
▁h	-11.0644
sure	-11.0649
ED	-11.0661
▁Half	-11.0665
rap	-11.0672
▁likely	-11.068
▁Enterprise	-11.0685
▁behavior	-11.0685
▁brilliant	-11.0685
▁uniform	-11.0685
▁Internet	-11.0685
▁grew	-11.0685
▁Other	-11.0687
▁Fair	-11.0688
▁Jo	-11.0688
▁realized	-11.069
▁Officer	-11.0692
▁heading	-11.0692
▁Phil	-11.0692
illa	-11.0699
▁arrested	-11.0712
ncy	-11.0714
▁Eric	-11.0727
▁Cor	-11.073
▁grave	-11.0733
▁IN	-11.0754
▁ni	-11.0769
▁Junior	-11.0773
▁procedure	-11.0773
▁vehicle	-11.0773
▁trace	-11.0773
▁insult	-11.0774
▁eighteen	-11.0774
▁Fire	-11.0774
▁fancy	-11.0774
▁rise	-11.0777
▁Naw	-11.0777
ov	-11.0782
▁someplace	-11.0785
▁chances	-11.0791
▁helpful	-11.0799
run	-11.0802
▁victim	-11.0804
▁exam	-11.0806
.]	-11.0816
CK	-11.0826
ville	-11.0827
▁graduate	-11.0834
▁Tu	-11.0838
jo	-11.0863
▁Especially	-11.0863
▁Girl	-11.0863
▁understood	-11.0863
▁midnight	-11.0863
▁suitcase	-11.0863
▁lover	-11.0863
▁fever	-11.0864
▁humor	-11.0865
▁mixed	-11.088
▁13	-11.0881
▁bum	-11.0898
▁spa	-11.0898
bra	-11.0905
▁ye	-11.0919
▁refuse	-11.0924
▁Excellent	-11.0953
▁attempt	-11.0953
▁challenge	-11.0953
▁citizen	-11.0953
▁confidence	-11.0953
▁ordinary	-11.0953
▁tennis	-11.0953
▁Play	-11.0954
▁script	-11.0954
▁Wang	-11.0955
▁Money	-11.0955
▁swing	-11.0958
▁path	-11.0959
▁cow	-11.0965
▁boxes	-11.0966
▁14	-11.0985
▁Send	-11.1002
▁riding	-11.1009
▁whom	-11.1013
0	-11.1015
▁engine	-11.1021
My	-11.1026
▁Run	-11.1034
wh	-11.1039
This	-11.104
▁threat	-11.1041
▁ge	-11.1042
▁perform	-11.1043
▁changing	-11.1044
▁dessert	-11.1044
▁illegal	-11.1044
▁journey	-11.1044
▁ancient	-11.1044
▁Lu	-11.1044
▁orange	-11.1045
▁bored	-11.1045
▁handsome	-11.1046
ob	-11.1046
▁June	-11.1047
▁According	-11.1047
▁flash	-11.1048
▁Free	-11.105
▁charming	-11.1058
ana	-11.1063
thing	-11.1069
They	-11.1077
▁based	-11.1084
▁settled	-11.1087
▁services	-11.1092
▁fishing	-11.112
▁Pan	-11.1125
X	-11.113
▁Detective	-11.1135
▁Either	-11.1135
▁celebrate	-11.1135
▁scientist	-11.1135
▁society	-11.1135
▁village	-11.1135
▁freedom	-11.1136
▁While	-11.1136
▁Lucy	-11.1142
▁seats	-11.1152
▁slowly	-11.1153
▁Soon	-11.117
put	-11.117
▁Need	-11.1173
▁Best	-11.1177
▁Roy	-11.1178
▁Hal	-11.1179
▁17	-11.119
▁Val	-11.1204
▁surely	-11.1212
Oh	-11.1212
▁rare	-11.1222
▁Low	-11.1225
▁Read	-11.1226
▁scratch	-11.1228
▁stretch	-11.1228
▁Again	-11.1228
▁baseball	-11.1228
▁Pull	-11.1229
▁Feel	-11.1232
▁guts	-11.1233
place	-11.1235
▁maid	-11.1238
▁Eh	-11.1249
▁disappeared	-11.1251
▁charges	-11.1266
lk	-11.1267
▁considered	-11.1271
11	-11.1287
▁highly	-11.1288
gger	-11.129
▁events	-11.1316
hh	-11.1317
▁mini	-11.1318
oke	-11.1319
▁chase	-11.132
▁champagne	-11.1321
▁grateful	-11.1321
▁laundry	-11.1321
▁Kelly	-11.1322
▁angel	-11.1322
▁practically	-11.1326
▁everyday	-11.1327
▁collection	-11.1332
AL	-11.1334
▁warning	-11.1341
ew	-11.1342
▁pitch	-11.1355
▁qua	-11.1364
oid	-11.1364
▁neighbor	-11.1367
▁Bro	-11.1375
▁opera	-11.1377
▁served	-11.1381
CH	-11.1385
▁Stu	-11.1387
cul	-11.1388
IT	-11.1395
ache	-11.1398
▁Bri	-11.1406
▁Move	-11.1406
▁advise	-11.1416
▁military	-11.1416
▁sample	-11.1416
▁sauce	-11.1416
▁smooth	-11.1416
▁frame	-11.1416
▁solid	-11.1416
▁Wade	-11.1418
▁pulling	-11.1418
▁Hong	-11.1419
▁AND	-11.1422
▁pipe	-11.1431
lot	-11.1435
▁ne	-11.1436
▁rob	-11.1439
▁Close	-11.1445
▁machines	-11.1454
▁Dis	-11.1458
▁bowl	-11.1458
▁shoe	-11.1466
hold	-11.147
▁tryin	-11.1476
▁saving	-11.1478
graph	-11.1489
▁female	-11.1511
▁tail	-11.1514
▁lack	-11.1514
▁500	-11.1515
▁visa	-11.1523
▁shipment	-11.1525
▁scary	-11.1525
LE	-11.1527
print	-11.1528
▁Americans	-11.1533
▁rope	-11.1533
▁ruined	-11.1535
▁Aunt	-11.1539
▁Force	-11.1548
▁Ken	-11.1549
▁below	-11.1554
▁tank	-11.1555
▁Thought	-11.1567
▁growing	-11.1575
pper	-11.1581
▁sum	-11.1585
▁tend	-11.159
where	-11.16
▁touched	-11.1602
▁genius	-11.1607
▁stood	-11.1607
▁Hildy	-11.1607
▁Police	-11.1607
▁political	-11.1607
▁nasty	-11.1607
▁Pardon	-11.1607
face	-11.1607
▁Funny	-11.1608
▁Bird	-11.1608
▁chief	-11.1608
▁bonus	-11.1609
▁Kong	-11.1609
▁Wi	-11.161
▁investment	-11.161
▁Anne	-11.1611
▁capable	-11.1611
▁Kane	-11.1611
▁personality	-11.1613
▁lies	-11.1617
▁Lake	-11.1617
▁Start	-11.1618
▁Sonny	-11.1619
ied	-11.1624
ink	-11.1641
▁mental	-11.1642
▁eighty	-11.1655
your	-11.1656
▁Janet	-11.1658
▁represent	-11.1664
▁iron	-11.1672
got	-11.1678
nie	-11.1681
ski	-11.1695
▁dirt	-11.1696
▁metal	-11.1699
▁Clarence	-11.1704
▁Kennedy	-11.1704
▁certificate	-11.1704
▁industry	-11.1704
▁invitation	-11.1704
▁possibility	-11.1704
▁rude	-11.1704
▁National	-11.1705
▁Edward	-11.1705
▁worm	-11.1706
▁delay	-11.1706
▁Lady	-11.1706
ists	-11.1708
▁Gotta	-11.1712
0,000	-11.1712
▁mon	-11.1713
▁Seems	-11.1718
▁skip	-11.1719
rud	-11.172
ko	-11.1731
▁swell	-11.1731
▁Stand	-11.174
▁Beth	-11.1745
EL	-11.1757
▁fingers	-11.1764
▁male	-11.1767
▁hon	-11.1776
▁traveling	-11.1783
▁films	-11.1784
hhh	-11.1784
look	-11.1797
▁withdraw	-11.1798
▁Vo	-11.1799
▁Australia	-11.1802
▁Oswald	-11.1802
▁diamond	-11.1802
▁interrupt	-11.1802
▁shield	-11.1802
▁similar	-11.1802
▁various	-11.1802
▁traditional	-11.1813
▁exit	-11.1813
▁Sta	-11.182
▁Hill	-11.1842
▁breathing	-11.1849
▁ki	-11.1862
▁site	-11.1864
▁Use	-11.1872
Ma	-11.1873
chi	-11.1874
ica	-11.1877
▁lips	-11.1878
▁Both	-11.1878
lay	-11.188
▁Fran	-11.1895
▁Rock	-11.1898
▁drag	-11.1898
▁Caesar	-11.1901
▁Church	-11.1901
▁Olympic	-11.1901
▁argument	-11.1901
▁clue	-11.1901
▁communication	-11.1901
▁desperate	-11.1901
▁pussy	-11.1901
▁zero	-11.1901
▁sixteen	-11.1901
▁cloud	-11.1901
▁argue	-11.1901
▁THAT	-11.1902
▁Texas	-11.1902
▁Terry	-11.1902
▁yellow	-11.1902
▁wrap	-11.1902
▁broad	-11.1902
▁Plus	-11.1903
▁jet	-11.1904
▁Hunt	-11.1905
▁0	-11.1905
▁rec	-11.191
▁buck	-11.1914
▁Save	-11.1914
▁Island	-11.1924
come	-11.1934
▁horses	-11.1934
▁doctors	-11.1935
have	-11.1939
▁Calm	-11.1942
▁earn	-11.1942
▁cur	-11.1943
▁Gui	-11.1952
▁wood	-11.1966
▁soldier	-11.1967
▁para	-11.1968
ax	-11.1976
mate	-11.1978
▁op	-11.1978
▁tap	-11.1979
▁Shanghai	-11.2001
▁Sleep	-11.2001
▁routine	-11.2001
▁Ellie	-11.2001
▁Karen	-11.2001
▁skirt	-11.2001
▁barely	-11.2001
▁community	-11.2002
▁Francisco	-11.2002
▁Margo	-11.2004
▁visiting	-11.2017
▁bike	-11.2019
▁doors	-11.202
▁whenever	-11.2021
▁gal	-11.2024
▁Walk	-11.2025
take	-11.2045
▁mid	-11.2048
▁divorced	-11.2049
list	-11.205
▁mountains	-11.2062
▁Reed	-11.2072
hundred	-11.2097
▁affect	-11.21
▁Club	-11.2102
▁location	-11.2102
▁organization	-11.2102
▁culture	-11.2102
▁secure	-11.2103
▁True	-11.2103
▁moral	-11.2104
▁fax	-11.2104
▁Yup	-11.2113
▁Wood	-11.2113
▁GO	-11.2114
▁members	-11.2117
▁Jackie	-11.2118
▁Pick	-11.2119
▁host	-11.2119
▁spin	-11.2127
▁fur	-11.2133
▁Ph	-11.2134
more	-11.2137
▁Land	-11.2142
▁colors	-11.2142
▁bull	-11.2143
▁Com	-11.2166
▁odd	-11.2173
▁pound	-11.2174
duct	-11.2192
▁Office	-11.2197
▁transport	-11.2203
▁defend	-11.2204
▁Beautiful	-11.2204
▁Spanish	-11.2204
▁WHAT	-11.2204
▁passenger	-11.2204
▁shadow	-11.2204
▁surface	-11.2204
▁naked	-11.2204
▁silver	-11.2204
▁Boston	-11.2204
▁Court	-11.2205
▁Laura	-11.2205
▁defense	-11.2205
▁Night	-11.2206
▁Brian	-11.2208
▁Anyone	-11.2208
▁Lin	-11.2212
other	-11.2212
▁deck	-11.2215
▁Young	-11.2222
▁min	-11.2225
▁failed	-11.2226
▁bond	-11.2228
bar	-11.2229
▁Kay	-11.2233
▁Book	-11.2238
▁require	-11.2248
▁fare	-11.2259
▁bla	-11.2268
fully	-11.2269
van	-11.2269
▁ja	-11.2279
▁emotional	-11.2279
▁flow	-11.228
▁suggestion	-11.2283
▁Stan	-11.2287
10	-11.2287
▁benefits	-11.229
▁photos	-11.2291
▁lad	-11.2291
▁cleaned	-11.2292
▁junk	-11.2295
▁assure	-11.2296
Q	-11.2303
▁Darling	-11.2308
▁Promise	-11.2308
▁assignment	-11.2308
▁explanation	-11.2308
▁horror	-11.2308
▁individual	-11.2308
▁modern	-11.2308
▁universe	-11.2308
▁valuable	-11.2308
▁technical	-11.2308
▁Otherwise	-11.2308
▁motor	-11.2308
▁joking	-11.2308
▁coast	-11.2308
▁Power	-11.2308
▁outfit	-11.2308
▁prick	-11.2309
▁belt	-11.2309
▁vision	-11.2311
▁pee	-11.2313
▁Hmmm	-11.2313
▁engaged	-11.2315
▁Name	-11.2315
▁Later	-11.2316
▁spy	-11.2323
win	-11.2328
▁ah	-11.2331
▁meters	-11.2343
▁Wasn	-11.2344
body	-11.235
there	-11.235
▁included	-11.2354
▁suite	-11.2358
▁Ram	-11.2363
▁Ko	-11.2364
▁Wha	-11.2365
cri	-11.2367
▁express	-11.2373
▁pour	-11.2374
▁bye	-11.2378
▁Wal	-11.2383
uring	-11.2384
een	-11.2396
▁Julia	-11.2406
▁Business	-11.2412
▁Taiwan	-11.2412
▁century	-11.2412
▁rabbit	-11.2412
▁supplies	-11.2412
▁supply	-11.2412
▁crush	-11.2412
▁monkey	-11.2412
▁Him	-11.2412
▁Claire	-11.2413
▁fried	-11.2413
▁basement	-11.2414
with	-11.2414
▁Mommy	-11.2415
▁minor	-11.2417
▁Tri	-11.2419
▁stake	-11.2424
▁gay	-11.2425
▁screaming	-11.2432
▁oughta	-11.2433
▁deny	-11.2434
▁spread	-11.2437
hoo	-11.2442
icle	-11.2446
▁knocked	-11.2451
quot	-11.2454
gon	-11.2455
▁disc	-11.2458
▁caused	-11.2461
▁forced	-11.2488
▁Cap	-11.249
▁apple	-11.2491
arm	-11.2495
SE	-11.2499
good	-11.2512
▁net	-11.2516
▁FUCK	-11.2517
▁Super	-11.2517
▁Central	-11.2517
▁Follow	-11.2517
▁commercial	-11.2517
▁declare	-11.2517
▁website	-11.2517
▁lousy	-11.2517
▁Number	-11.2517
▁abroad	-11.2517
▁drown	-11.2517
▁influence	-11.2517
▁network	-11.2517
▁passing	-11.2519
▁Port	-11.252
▁bound	-11.2524
▁OF	-11.2524
▁row	-11.2526
▁discovered	-11.2531
▁billion	-11.2534
▁Boss	-11.2538
▁hunting	-11.2543
▁tellin	-11.2549
▁WE	-11.2561
▁Mine	-11.2562
now	-11.2565
▁washing	-11.2565
▁rap	-11.2595
▁Cho	-11.2596
▁regard	-11.2602
ole	-11.2604
▁Ow	-11.2606
▁wondered	-11.2615
▁Russia	-11.2618
▁sandwich	-11.2619
▁fed	-11.2623
▁virgin	-11.2623
▁Fifty	-11.2623
▁Forgive	-11.2623
▁Unfortunately	-11.2623
▁babies	-11.2623
▁stairs	-11.2623
▁vampire	-11.2623
▁prevent	-11.2623
▁studied	-11.2623
▁nigger	-11.2624
▁Japan	-11.2624
▁golf	-11.2624
▁adjust	-11.2624
▁snap	-11.2624
▁babe	-11.2625
▁Suppose	-11.2626
▁Sister	-11.2627
▁production	-11.2627
▁flower	-11.263
▁panic	-11.263
▁mistakes	-11.2634
▁heh	-11.2635
▁particularly	-11.2639
AD	-11.2639
▁fucker	-11.2645
▁BE	-11.2647
round	-11.2669
▁develop	-11.2691
UR	-11.2696
▁Times	-11.2698
▁noon	-11.27
▁document	-11.2709
pot	-11.2712
▁Den	-11.2713
▁began	-11.2721
▁dressing	-11.2725
▁Col	-11.2726
▁interests	-11.2726
▁brief	-11.2731
▁Definitely	-11.2731
▁Sweet	-11.2731
▁ashamed	-11.2731
▁Jesse	-11.2731
▁carpet	-11.2731
▁launch	-11.2732
▁gear	-11.2734
▁Simone	-11.2736
▁prize	-11.2737
▁Miller	-11.2742
▁Roman	-11.2743
▁Drive	-11.2743
▁salt	-11.2744
▁Kate	-11.2748
▁circumstances	-11.2753
▁Fucking	-11.2763
▁degrees	-11.277
long	-11.2775
▁packing	-11.278
▁Matt	-11.2782
cal	-11.2784
aries	-11.2789
▁walls	-11.2796
▁bone	-11.2798
▁corn	-11.2798
bit	-11.2802
away	-11.2816
▁scream	-11.2818
▁tied	-11.282
▁Mer	-11.2827
▁nation	-11.2833
▁cock	-11.2833
thirty	-11.2835
▁comfort	-11.2837
▁Kevin	-11.284
▁budget	-11.284
▁flesh	-11.284
▁grandmother	-11.284
▁semester	-11.284
▁steam	-11.284
▁reduce	-11.284
▁studio	-11.284
▁hidden	-11.284
▁slave	-11.284
▁grandfather	-11.284
▁gather	-11.284
ella	-11.2841
▁compare	-11.2841
▁Mind	-11.2842
▁sentence	-11.2842
▁aboard	-11.2847
row	-11.2851
▁dating	-11.2851
▁fo	-11.2857
▁prisoner	-11.2858
▁21	-11.2862
bitch	-11.2863
war	-11.2871
nine	-11.2875
lies	-11.2876
▁arranged	-11.2883
▁strip	-11.2883
▁Sean	-11.2905
▁Pl	-11.2909
▁den	-11.2918
▁witch	-11.2921
▁zoo	-11.2924
▁register	-11.2934
▁Hand	-11.2943
▁Women	-11.2949
▁senior	-11.2949
▁”	-11.2949
▁carried	-11.295
▁Vince	-11.295
▁unhappy	-11.295
▁daily	-11.295
▁lord	-11.2951
▁Angeles	-11.2953
▁Carter	-11.2955
▁Madame	-11.296
vol	-11.2966
▁dealer	-11.2966
▁belongs	-11.2968
▁Eat	-11.2973
▁Mmmm	-11.2978
▁Nicky	-11.2981
▁mall	-11.2983
▁curse	-11.2987
▁thinkin	-11.2989
▁smaller	-11.2989
▁soldiers	-11.299
▁Comp	-11.2991
▁shy	-11.2993
▁Going	-11.2994
▁Surely	-11.3003
▁suffer	-11.3024
mmm	-11.305
ET	-11.305
▁bid	-11.3054
live	-11.3055
▁worrying	-11.3061
▁campaign	-11.3061
▁courage	-11.3061
▁professor	-11.3061
▁thief	-11.3061
▁failure	-11.3061
▁average	-11.3061
▁bless	-11.3064
hood	-11.3085
▁pink	-11.3086
▁screwed	-11.3092
▁wasting	-11.3099
▁kicked	-11.3105
▁Cur	-11.3106
here	-11.3113
▁knees	-11.3121
▁Sch	-11.3128
▁cats	-11.3133
▁Burn	-11.3133
▁windows	-11.3139
▁teaching	-11.3139
ek	-11.314
▁par	-11.3143
▁Trans	-11.3153
▁discover	-11.3159
▁result	-11.3162
three	-11.3169
Why	-11.3169
In	-11.317
▁commit	-11.317
▁tag	-11.3172
▁Jabez	-11.3173
▁casual	-11.3173
▁offense	-11.3173
▁thrill	-11.3173
▁thick	-11.3174
▁flatter	-11.3176
▁nor	-11.3179
▁coke	-11.318
▁duck	-11.3184
▁auto	-11.3189
▁cabin	-11.3189
burg	-11.3206
▁graduated	-11.3209
▁millions	-11.3211
▁washed	-11.3211
Don	-11.3219
▁sucker	-11.3219
cher	-11.323
▁Win	-11.3255
▁seek	-11.3256
▁Flo	-11.3265
▁rocks	-11.3266
▁confess	-11.3278
▁chi	-11.3283
▁Avenue	-11.3287
▁Jessica	-11.3287
▁negative	-11.3287
▁respond	-11.3287
▁cocktail	-11.3287
▁Wonderful	-11.3287
▁Kirk	-11.3287
▁fought	-11.3287
▁weakness	-11.3288
▁bump	-11.3289
▁bail	-11.329
ically	-11.3291
▁Lots	-11.3295
▁Dear	-11.3303
▁Cra	-11.3317
▁prom	-11.3327
▁woods	-11.3328
ridge	-11.3329
▁meals	-11.3341
▁bro	-11.3348
▁je	-11.3353
TA	-11.336
▁Julie	-11.3372
▁prob	-11.3389
▁ghost	-11.3395
▁Hav	-11.3395
▁Mars	-11.3396
<	-11.3396
Beat	-11.3398
▁Friend	-11.3401
▁Miami	-11.3401
▁OUT	-11.3401
▁baggage	-11.3401
▁captain	-11.3401
▁Canada	-11.3402
▁adult	-11.3402
▁Answer	-11.3402
▁Enough	-11.3402
▁memories	-11.3402
▁border	-11.3402
▁Western	-11.3402
▁Diego	-11.3402
▁chop	-11.3402
▁link	-11.3404
▁Yuan	-11.3405
▁ninety	-11.3406
▁dime	-11.3418
▁mi	-11.3421
▁someday	-11.3431
▁setting	-11.3432
▁Wind	-11.3439
pan	-11.3439
▁Shhh	-11.3441
▁jumped	-11.3449
ington	-11.3464
▁accepted	-11.3471
▁leading	-11.3471
▁Cat	-11.3476
▁z	-11.3492
▁pale	-11.3514
▁Florida	-11.3518
▁accomplish	-11.3518
▁activities	-11.3518
▁capital	-11.3518
▁ignore	-11.3518
▁miserable	-11.3518
▁prescription	-11.3518
▁swallow	-11.3518
▁Nathan	-11.3518
▁basis	-11.3518
▁Patrick	-11.3518
▁Special	-11.3518
▁Monica	-11.3518
▁impressive	-11.3518
▁Lenny	-11.3518
▁chart	-11.3519
▁GET	-11.3519
▁editor	-11.352
▁Price	-11.3521
▁mustn	-11.3521
▁tourist	-11.3528
▁properly	-11.3528
har	-11.3531
▁warn	-11.3531
rist	-11.3536
talk	-11.3537
▁math	-11.3541
▁bones	-11.3541
▁Road	-11.3547
▁Part	-11.3547
▁bang	-11.355
rick	-11.3558
life	-11.3562
▁SO	-11.3563
▁Doug	-11.357
▁treated	-11.357
▁wipe	-11.357
▁Wil	-11.3573
▁justice	-11.358
▁related	-11.3581
who	-11.359
▁magazines	-11.362
There	-11.3623
▁trained	-11.3623
▁TH	-11.3625
▁tooth	-11.3632
▁ON	-11.3632
▁reception	-11.3635
▁Elizabeth	-11.3635
▁Harvard	-11.3635
▁incident	-11.3635
▁wreck	-11.3635
▁snake	-11.3635
▁option	-11.3636
▁Congress	-11.3636
▁nun	-11.3637
▁Wayne	-11.3638
see	-11.3641
why	-11.3644
▁cage	-11.3646
▁discussion	-11.3647
▁ideal	-11.3649
▁bleeding	-11.3649
▁Case	-11.3651
▁Ricky	-11.3651
▁dial	-11.3652
bed	-11.3655
▁whoever	-11.3656
▁quote	-11.3657
▁expenses	-11.3659
▁pla	-11.366
▁slight	-11.3664
▁loaded	-11.3669
Can	-11.3669
▁eaten	-11.3671
▁packed	-11.3675
▁Boo	-11.3677
▁butter	-11.3678
stand	-11.3679
▁Plan	-11.368
gar	-11.3681
▁savings	-11.3693
▁armed	-11.3695
▁neighbors	-11.3696
▁beam	-11.3699
RO	-11.3702
▁tricks	-11.3711
cap	-11.3712
▁Howard	-11.372
Well	-11.373
▁led	-11.373
Thank	-11.375
▁import	-11.3754
▁Catherine	-11.3754
▁Mozart	-11.3754
▁eventually	-11.3754
▁monitor	-11.3754
▁minimum	-11.3754
▁basketball	-11.3755
▁wander	-11.3755
▁permission	-11.3755
▁agency	-11.3755
▁stroke	-11.3755
▁resist	-11.3756
▁_	-11.3759
▁sayin	-11.3761
▁YOUR	-11.3761
▁treatment	-11.3764
▁cutting	-11.3777
▁tries	-11.3777
▁crowded	-11.3777
▁Parker	-11.378
▁larger	-11.3781
▁dope	-11.3786
▁operate	-11.3787
▁odds	-11.3793
▁fu	-11.3805
did	-11.3815
▁attacked	-11.3817
▁reached	-11.3817
▁log	-11.3823
▁blocks	-11.3833
▁raised	-11.3838
▁60	-11.3844
▁convince	-11.3847
▁colleagues	-11.3849
▁marketing	-11.3854
45	-11.3855
▁confirm	-11.3858
▁Head	-11.386
▁cheer	-11.3866
stone	-11.3867
▁Africa	-11.3869
half	-11.387
▁breast	-11.3875
▁column	-11.3875
▁entrance	-11.3875
▁opposite	-11.3875
▁tunnel	-11.3875
▁smash	-11.3875
▁surf	-11.3875
▁flies	-11.3876
turn	-11.3876
▁River	-11.3876
▁kilo	-11.3876
▁authority	-11.3877
af	-11.3878
▁shout	-11.3878
▁sec	-11.388
▁newspapers	-11.3881
▁theatre	-11.3883
▁effects	-11.3895
term	-11.39
▁Tea	-11.3908
fin	-11.3915
▁asses	-11.3926
▁tan	-11.3934
She	-11.3934
rum	-11.3936
ugh	-11.3939
▁offering	-11.3942
▁victims	-11.3955
▁Las	-11.3959
▁goodness	-11.3966
▁connect	-11.3976
▁tri	-11.3978
ix	-11.3981
▁INT	-11.3989
▁throwing	-11.3991
▁ST	-11.3995
▁Joseph	-11.3996
▁permit	-11.3996
▁Apparently	-11.3997
▁Chauncey	-11.3997
▁Starfleet	-11.3997
▁signature	-11.3997
▁casino	-11.3997
▁contest	-11.3997
▁Doyle	-11.3997
▁display	-11.3997
▁string	-11.3997
▁export	-11.3998
▁bury	-11.3999
olo	-11.3999
▁jack	-11.4002
▁protection	-11.4004
▁Law	-11.4005
▁rumor	-11.4006
▁scale	-11.4006
▁measure	-11.4007
▁Frankie	-11.4008
▁appears	-11.4008
▁Way	-11.4008
tell	-11.4018
▁mob	-11.4021
▁partners	-11.4032
▁remembered	-11.4032
▁fourth	-11.4034
▁songs	-11.4038
▁Fat	-11.4043
▁Rich	-11.4046
▁Cal	-11.4052
▁Va	-11.4055
▁sink	-11.4057
▁hip	-11.406
▁considering	-11.4073
▁ban	-11.4079
▁rug	-11.4083
▁rig	-11.4093
ware	-11.4098
▁Top	-11.4107
▁practical	-11.4114
Z	-11.4115
worth	-11.4115
▁Emperor	-11.412
▁Phillip	-11.412
▁School	-11.412
▁gamble	-11.412
▁muscle	-11.412
▁response	-11.412
▁sacrifice	-11.412
▁thumb	-11.412
▁volunteer	-11.412
▁trash	-11.412
▁motel	-11.412
▁potential	-11.412
▁Shoot	-11.412
▁medium	-11.4121
▁waitress	-11.4121
▁device	-11.4121
▁Craig	-11.4121
▁sensitive	-11.4121
▁addict	-11.4121
▁Greg	-11.4121
▁jury	-11.4122
▁Romeo	-11.4127
▁disappointed	-11.4132
▁dreaming	-11.4133
key	-11.4137
pend	-11.415
▁80	-11.4152
▁Pen	-11.4153
shot	-11.4157
▁thy	-11.4159
▁skill	-11.4182
pie	-11.4182
bel	-11.419
▁factor	-11.4216
▁Wall	-11.4224
▁Pal	-11.4226
▁Set	-11.4231
▁Lincoln	-11.4245
▁Monsieur	-11.4245
▁Wanna	-11.4245
▁anniversary	-11.4245
▁depressed	-11.4245
▁precious	-11.4245
▁solution	-11.4245
▁pathetic	-11.4245
▁reckon	-11.4245
▁fourteen	-11.4245
▁spill	-11.4246
▁robbed	-11.4246
▁options	-11.4246
▁flip	-11.4246
▁Judge	-11.4246
▁rice	-11.4247
▁Mitch	-11.4247
▁draft	-11.4247
▁Superman	-11.4247
ept	-11.425
▁foolish	-11.425
▁roommate	-11.425
▁Grandma	-11.4259
▁Sun	-11.4262
▁chip	-11.4265
looking	-11.4267
▁beside	-11.4268
▁wherever	-11.427
▁thrown	-11.4278
▁scr	-11.4289
▁stronger	-11.429
▁Whose	-11.4292
ological	-11.4308
▁LA	-11.4315
rage	-11.4315
▁Bell	-11.4318
▁mass	-11.4321
▁Bla	-11.4322
set	-11.4328
▁Fall	-11.4329
▁remove	-11.4348
▁NOT	-11.4349
▁cent	-11.4353
▁Dean	-11.4358
TH	-11.4361
ization	-11.4372
▁Account	-11.4372
▁August	-11.4372
▁Baxter	-11.4372
▁sonofabitch	-11.4372
▁treasure	-11.4372
▁Ethan	-11.4372
▁champion	-11.4372
▁chemical	-11.4372
▁cruel	-11.4372
▁thirteen	-11.4372
▁rescue	-11.4372
▁trigger	-11.4372
▁shrink	-11.4372
▁Lucky	-11.4372
▁closing	-11.4372
▁alien	-11.4372
▁east	-11.4373
▁Nazi	-11.4373
▁estate	-11.4373
▁Jewish	-11.4373
▁Heaven	-11.4373
▁hostage	-11.4373
▁queen	-11.4373
▁Vada	-11.4373
▁fence	-11.4374
▁advertisement	-11.4374
▁cities	-11.4376
▁blast	-11.438
▁embarrassing	-11.4384
▁lap	-11.4387
▁Meet	-11.4388
▁suffering	-11.4396
coming	-11.4396
▁convinced	-11.4402
▁tastes	-11.4415
▁designed	-11.4415
self	-11.4429
▁Die	-11.4438
▁manner	-11.444
▁Act	-11.4446
▁bend	-11.4453
▁joined	-11.4456
▁prayer	-11.4457
▁sail	-11.4471
▁wit	-11.4478
bie	-11.4485
▁23	-11.4486
▁clo	-11.4492
▁conduct	-11.4497
▁Mexican	-11.45
▁associate	-11.45
▁liquor	-11.45
▁nonsense	-11.45
▁picnic	-11.45
▁previous	-11.45
▁Cross	-11.45
▁costume	-11.4501
▁basically	-11.4501
▁Andrew	-11.4501
▁concept	-11.4502
▁fuel	-11.4502
▁Said	-11.4505
▁UP	-11.4506
▁Being	-11.451
▁July	-11.4513
▁registered	-11.4518
▁Sort	-11.4519
▁bin	-11.4521
▁entirely	-11.4522
▁benefit	-11.4522
▁employee	-11.4523
▁wo	-11.4524
▁fate	-11.4529
▁headed	-11.4537
▁Lily	-11.454
▁DON	-11.4546
wer	-11.4549
▁stealing	-11.4558
hou	-11.4576
▁jokes	-11.4587
▁mode	-11.4602
▁charm	-11.461
▁custom	-11.4619
▁Prince	-11.4625
cur	-11.4625
tail	-11.4626
▁nuclear	-11.463
▁maintain	-11.463
▁Albert	-11.463
▁predict	-11.463
▁Wendy	-11.463
▁silk	-11.463
▁tiny	-11.463
▁towel	-11.4631
▁election	-11.4631
▁horn	-11.4631
▁alter	-11.4631
▁lung	-11.4632
▁Sandy	-11.4632
▁til	-11.4634
▁Princess	-11.4636
▁International	-11.4637
▁MY	-11.464
▁sweetie	-11.4642
▁shown	-11.4643
▁located	-11.4646
▁Speaking	-11.4647
▁straighten	-11.4648
▁angle	-11.4649
▁bake	-11.4653
▁Pass	-11.4655
▁fer	-11.4661
▁Card	-11.4663
▁scan	-11.4663
▁suggestions	-11.467
▁Live	-11.468
▁Jew	-11.4681
▁Post	-11.4685
▁singer	-11.4685
▁movement	-11.4685
▁Fuckin	-11.4686
▁monthly	-11.4706
dies	-11.4717
▁west	-11.4717
wo	-11.4725
▁bothered	-11.4725
▁gig	-11.4727
friend	-11.4752
▁aim	-11.4755
jack	-11.4759
▁blank	-11.4761
▁Enjoy	-11.4762
▁approve	-11.4762
▁enemies	-11.4762
▁feature	-11.4762
▁Cindy	-11.4762
▁inspection	-11.4762
▁spicy	-11.4762
▁supper	-11.4762
▁priest	-11.4762
▁Susie	-11.4762
▁Robinson	-11.4762
▁Graham	-11.4762
▁technology	-11.4763
▁slipped	-11.4763
▁tits	-11.4766
▁guards	-11.4767
▁campus	-11.4767
▁Dickie	-11.4768
▁memo	-11.4768
▁purse	-11.4769
▁Christian	-11.4769
▁castle	-11.4769
▁role	-11.4769
▁confession	-11.4771
▁Rand	-11.4778
▁PM	-11.4779
▁Louise	-11.4784
▁marks	-11.4791
RA	-11.4795
▁Cheer	-11.4796
▁enjoying	-11.4799
▁gro	-11.4809
▁rip	-11.481
▁Pay	-11.4816
▁bow	-11.4828
▁Bra	-11.4838
▁ol	-11.4858
▁Jews	-11.4869
load	-11.4889
any	-11.4894
▁cigar	-11.4895
▁Federation	-11.4895
▁Finally	-11.4895
▁Lombard	-11.4895
▁Sailor	-11.4895
▁Security	-11.4895
▁Twelve	-11.4895
▁appeal	-11.4895
▁candidate	-11.4895
▁clerk	-11.4895
▁encourage	-11.4895
▁intelligent	-11.4895
▁nowadays	-11.4895
▁pistol	-11.4895
▁politics	-11.4895
▁violence	-11.4895
▁Dallas	-11.4895
▁coincidence	-11.4895
▁statue	-11.4895
▁plug	-11.4895
▁Quiet	-11.4896
▁plot	-11.4896
▁Jeanne	-11.4897
▁Lester	-11.4898
▁winning	-11.4898
▁examine	-11.49
▁reaction	-11.4901
▁Royal	-11.4901
▁players	-11.4902
▁twin	-11.4905
▁fond	-11.4905
▁Whoever	-11.4908
▁stun	-11.4911
Now	-11.4911
sky	-11.4917
▁spec	-11.4922
▁joy	-11.4925
▁stat	-11.4928
▁Much	-11.4929
▁blown	-11.4932
▁chill	-11.4933
▁gi	-11.4942
▁Main	-11.4945
▁dull	-11.4948
▁union	-11.4951
▁soap	-11.4952
▁yell	-11.4955
▁Kit	-11.498
▁charged	-11.4981
▁300	-11.4996
Li	-11.4996
▁AM	-11.4999
▁Chris	-11.5002
▁Whatta	-11.5002
▁Dil	-11.5007
▁CO	-11.5007
▁strict	-11.5024
oney	-11.5026
uva	-11.5027
“	-11.503
▁Faith	-11.503
▁Gardiner	-11.503
▁competition	-11.503
▁concentrate	-11.503
▁economy	-11.503
▁independent	-11.503
▁leather	-11.503
▁lecture	-11.503
▁polite	-11.503
▁superior	-11.503
▁vessel	-11.503
▁seventeen	-11.503
▁Heather	-11.503
▁mystery	-11.503
▁Diane	-11.5031
ordinat	-11.5031
▁frozen	-11.5031
▁badge	-11.5032
▁Jill	-11.5032
▁Dark	-11.5033
wait	-11.5034
▁embarrassed	-11.5039
▁mate	-11.5041
▁engineer	-11.5042
▁grass	-11.5043
▁select	-11.5043
▁rot	-11.5048
▁naturally	-11.5049
▁disco	-11.5052
60	-11.5054
▁tick	-11.5059
▁Pin	-11.5062
▁honestly	-11.5065
via	-11.5078
▁mole	-11.508
▁soda	-11.5085
▁worker	-11.5087
▁Fu	-11.5088
▁aunt	-11.5092
▁whip	-11.5093
CE	-11.5094
▁aside	-11.5103
▁height	-11.5106
ama	-11.5109
La	-11.5128
▁sew	-11.5135
▁disturb	-11.5151
▁spit	-11.5161
till	-11.5161
▁prior	-11.5166
▁entertain	-11.5166
▁Agnes	-11.5167
▁Chuck	-11.5167
▁Federal	-11.5167
▁Government	-11.5167
▁October	-11.5167
▁Pearl	-11.5167
▁advertising	-11.5167
▁although	-11.5167
▁drift	-11.5167
▁false	-11.5167
▁gorgeous	-11.5167
▁happiness	-11.5167
▁league	-11.5167
▁proposal	-11.5167
▁supermarket	-11.5167
▁Lemme	-11.5167
▁dentist	-11.5167
▁roast	-11.5167
▁Indeed	-11.5167
▁stiff	-11.5167
▁torture	-11.5167
▁wealth	-11.5168
▁chew	-11.5168
▁aisle	-11.5168
▁committed	-11.5168
▁brick	-11.5169
▁Shelly	-11.5169
hear	-11.5171
▁stopping	-11.5177
▁Sign	-11.5178
▁fallen	-11.5183
▁lifetime	-11.5193
▁however	-11.5197
Be	-11.5198
▁Kat	-11.5214
▁anytime	-11.5214
▁drawing	-11.5218
fer	-11.5219
▁noble	-11.5224
▁fry	-11.5235
ought	-11.5263
▁staring	-11.5272
wfully	-11.5273
▁counting	-11.5277
▁materials	-11.5279
mark	-11.5284
▁frighten	-11.529
▁managed	-11.5298
▁chose	-11.5301
wood	-11.5303
▁flag	-11.5304
when	-11.5306
▁Alexander	-11.5306
▁Spring	-11.5306
▁Usually	-11.5306
▁intelligence	-11.5306
▁lobby	-11.5306
▁refund	-11.5306
▁religious	-11.5306
▁resource	-11.5306
▁consult	-11.5306
▁starving	-11.5306
▁CIA	-11.5306
▁Commission	-11.5306
▁resign	-11.5306
▁crook	-11.5307
▁bride	-11.5307
▁email	-11.5308
▁Quick	-11.5308
▁Angel	-11.5309
▁Light	-11.531
▁nearby	-11.5312
▁circle	-11.5312
▁friendship	-11.5316
Yes	-11.5327
▁useless	-11.5331
▁Gus	-11.5332
▁Forty	-11.5334
▁Jan	-11.5335
▁Shouldn	-11.5336
▁Working	-11.534
dding	-11.5342
▁emotion	-11.5344
▁roses	-11.5355
▁media	-11.537
nel	-11.5372
▁goal	-11.5378
▁Ahh	-11.5383
elle	-11.5403
▁Luc	-11.541
▁jo	-11.5412
bag	-11.5414
▁workers	-11.5417
▁tire	-11.5421
lop	-11.5422
▁involve	-11.5437
▁trail	-11.5437
▁goddam	-11.544
fifty	-11.5442
smoking	-11.5442
▁actual	-11.5442
▁clown	-11.5447
▁description	-11.5447
▁reflect	-11.5447
▁nineteen	-11.5447
▁lease	-11.5447
▁transferred	-11.5447
▁surgery	-11.5447
▁cowboy	-11.5447
▁retirement	-11.5448
▁Nancy	-11.5448
▁possession	-11.5449
▁Josh	-11.5449
▁qualified	-11.545
▁development	-11.5451
▁el	-11.5454
▁expression	-11.5454
▁Comm	-11.5455
▁Kind	-11.5457
rated	-11.5458
▁weigh	-11.5461
▁highest	-11.5469
▁anyhow	-11.5471
▁sheet	-11.5475
yard	-11.5475
▁cave	-11.5476
▁Fla	-11.5478
▁bowling	-11.5479
▁rum	-11.5484
lent	-11.5491
▁dough	-11.5492
▁Rod	-11.5492
▁Ned	-11.5502
▁ranch	-11.5511
minate	-11.5515
▁workin	-11.5523
▁income	-11.5538
▁Umm	-11.5543
▁HA	-11.5552
▁cheat	-11.5554
izz	-11.5563
▁returned	-11.5568
▁Bay	-11.5568
▁spoil	-11.5574
▁lessons	-11.558
_	-11.5585
father	-11.5585
▁Barbara	-11.559
▁September	-11.559
▁Veronica	-11.559
▁Yesterday	-11.559
▁combination	-11.559
▁currency	-11.559
▁negotiate	-11.559
▁element	-11.559
▁Center	-11.559
▁annual	-11.559
▁presence	-11.559
▁Otis	-11.559
▁racket	-11.559
▁capture	-11.559
▁chasing	-11.559
▁Wilson	-11.5591
▁appearance	-11.5591
▁effective	-11.5592
▁drum	-11.5592
▁copies	-11.5596
ik	-11.5596
▁gross	-11.5596
▁mister	-11.5598
▁Gold	-11.56
▁Jud	-11.5601
▁Director	-11.5601
▁Fish	-11.5604
▁Liz	-11.5614
even	-11.5618
▁wore	-11.5636
▁Frances	-11.5649
▁wings	-11.565
▁hop	-11.5677
NT	-11.568
▁bri	-11.5683
iate	-11.5688
▁inch	-11.5691
▁dreamed	-11.5707
%	-11.573
▁fighter	-11.5733
▁Wyatt	-11.5735
▁alternative	-11.5735
▁perfume	-11.5735
▁powder	-11.5735
▁struck	-11.5735
▁symbol	-11.5735
▁Vietnam	-11.5735
▁honeymoon	-11.5735
▁proceed	-11.5735
▁Barnes	-11.5735
▁actress	-11.5735
▁slap	-11.5735
▁pirate	-11.5735
▁Sugar	-11.5735
▁committee	-11.5735
▁debt	-11.5735
▁neat	-11.5737
▁Starling	-11.5737
▁Water	-11.5738
▁hint	-11.5738
▁FOR	-11.5739
▁boots	-11.5741
▁Lex	-11.5745
▁tears	-11.5746
▁connected	-11.5754
▁pile	-11.5759
▁Ford	-11.5761
▁Bond	-11.5764
ister	-11.577
▁apples	-11.5771
▁Fun	-11.5773
▁lion	-11.5775
▁pur	-11.5781
▁Mum	-11.579
▁Kim	-11.5792
▁Ze	-11.5792
▁Hy	-11.5795
▁coin	-11.5803
state	-11.5817
II	-11.5852
▁Dur	-11.5872
▁Gale	-11.5875
▁pi	-11.5879
▁alcohol	-11.588
▁civil	-11.588
▁brush	-11.5882
▁instinct	-11.5882
▁Claude	-11.5882
▁Imagine	-11.5882
▁Wrong	-11.5882
▁economic	-11.5882
▁lazy	-11.5882
▁opportunities	-11.5882
▁oxygen	-11.5882
▁testify	-11.5882
▁typical	-11.5882
▁uncomfortable	-11.5882
▁Apple	-11.5882
▁Sheila	-11.5882
▁Small	-11.5882
▁therapy	-11.5882
▁whack	-11.5882
▁chess	-11.5882
▁ripped	-11.5883
▁Vincent	-11.5883
▁exhibition	-11.5884
▁blah	-11.5884
▁tune	-11.5884
▁coward	-11.5885
▁recent	-11.5885
▁Slow	-11.5887
▁chosen	-11.5888
▁labor	-11.5888
▁Q	-11.5889
▁Lois	-11.5889
▁bullets	-11.5889
▁Drop	-11.5891
▁Mason	-11.5894
▁passion	-11.59
▁waiter	-11.5906
▁beating	-11.5908
20	-11.5916
▁90	-11.593
▁Tor	-11.5941
fine	-11.5947
▁blonde	-11.5955
15	-11.5956
▁colored	-11.5964
▁ph	-11.5964
then	-11.5973
mine	-11.5983
aging	-11.5991
▁grip	-11.6022
▁establish	-11.6029
▁Charley	-11.6031
▁Fifteen	-11.6031
▁Figure	-11.6031
▁Jacqueline	-11.6031
▁bachelor	-11.6031
▁cooperate	-11.6031
▁envelope	-11.6031
▁squad	-11.6031
▁steady	-11.6031
▁unemployment	-11.6031
▁yourselves	-11.6031
▁knight	-11.6031
▁Jeez	-11.6031
going	-11.6032
▁root	-11.6032
▁scrap	-11.6032
▁Evan	-11.6033
▁Tower	-11.6034
▁Drink	-11.6035
▁Italy	-11.6036
▁boil	-11.6036
▁airline	-11.6037
▁severe	-11.6038
ison	-11.6041
▁hurting	-11.6044
▁slim	-11.6044
▁Gary	-11.6056
▁shoulda	-11.6063
▁Bon	-11.6072
ria	-11.6075
▁requires	-11.6076
▁CD	-11.608
▁safer	-11.6081
ado	-11.6092
cit	-11.6105
▁Hm	-11.6111
▁experienced	-11.6129
▁Yu	-11.6139
hen	-11.6139
▁former	-11.6142
part	-11.6146
oooo	-11.6147
▁hack	-11.6148
▁award	-11.6157
gle	-11.6177
maybe	-11.6178
▁branch	-11.6179
▁punish	-11.6181
▁instruct	-11.6182
water	-11.6182
▁Agency	-11.6182
▁Coffee	-11.6182
▁Debbie	-11.6182
▁Naturally	-11.6182
▁instrument	-11.6182
▁literature	-11.6182
▁pencil	-11.6182
▁principle	-11.6182
▁storage	-11.6182
▁underwear	-11.6182
▁Jennifer	-11.6182
▁gimme	-11.6182
▁permanent	-11.6182
▁Jamie	-11.6182
▁serial	-11.6182
▁transmission	-11.6183
▁version	-11.6183
▁ease	-11.6183
▁Lawson	-11.6183
▁dining	-11.6184
▁trapped	-11.6184
▁Zero	-11.6185
Let	-11.6187
▁poet	-11.6189
▁robbery	-11.619
▁ghosts	-11.6191
▁accountant	-11.6191
▁Jen	-11.6202
lash	-11.6204
▁policeman	-11.6204
▁etc	-11.6209
▁Cook	-11.6213
▁informed	-11.6213
▁Willie	-11.6213
NG	-11.6218
char	-11.6223
posed	-11.6226
▁rear	-11.6239
yo	-11.6242
▁150	-11.6253
▁knee	-11.6253
▁Rosa	-11.6254
person	-11.6254
inal	-11.626
▁22	-11.626
uch	-11.6282
▁mum	-11.6297
▁dock	-11.6297
▁Bull	-11.6302
own	-11.6303
▁Bee	-11.6308
nut	-11.6313
nky	-11.6328
girl	-11.6332
vision	-11.6335
▁confident	-11.6336
responsibilities	-11.6336
—	-11.6336
▁Claudia	-11.6336
▁Obviously	-11.6336
▁Square	-11.6336
▁adventure	-11.6336
▁audition	-11.6336
▁ceremony	-11.6336
▁destiny	-11.6336
▁fabulous	-11.6336
▁patience	-11.6336
▁surrender	-11.6336
▁suspicious	-11.6336
▁Berlin	-11.6336
▁Devil	-11.6336
▁loving	-11.6336
▁federal	-11.6336
▁collar	-11.6336
▁Thelma	-11.6336
▁Understand	-11.6336
▁Ki	-11.6337
▁species	-11.6337
▁entertainment	-11.6338
▁couch	-11.6338
▁filthy	-11.6339
▁frankly	-11.6341
▁Bible	-11.6343
iding	-11.6345
25	-11.6346
about	-11.6346
▁lend	-11.6349
▁nap	-11.6349
▁consideration	-11.635
▁Toby	-11.6355
▁developed	-11.6359
▁trusted	-11.636
▁tale	-11.6362
AM	-11.6364
▁fairly	-11.6374
▁tower	-11.6376
▁relatives	-11.6398
▁sexy	-11.6399
▁rag	-11.6402
▁Herr	-11.6406
play	-11.6411
▁ending	-11.6422
bri	-11.6439
▁expose	-11.6442
▁Gar	-11.6475
▁chips	-11.6479
star	-11.6481
▁Gri	-11.6482
▁achieve	-11.6488
foot	-11.6488
▁Simon	-11.6491
▁occur	-11.6492
▁Inspector	-11.6492
▁Lydia	-11.6492
▁glory	-11.6492
▁squeeze	-11.6492
▁testimony	-11.6492
▁revenge	-11.6493
▁sweep	-11.6493
▁Stephen	-11.6493
▁Ellen	-11.6493
▁shelter	-11.6493
▁Short	-11.6493
▁studies	-11.6493
▁loyalty	-11.6493
▁zone	-11.6494
▁tube	-11.6496
▁Marge	-11.6496
▁winner	-11.6498
▁disgusting	-11.6501
▁haul	-11.6501
▁salesman	-11.6501
aid	-11.6514
phone	-11.6514
▁retired	-11.6519
▁hitting	-11.6524
▁hum	-11.6526
Re	-11.6528
ruct	-11.653
▁stamps	-11.6552
▁Bel	-11.6552
eau	-11.6553
▁Bear	-11.6553
▁Mayor	-11.6572
▁messed	-11.6574
▁sheets	-11.6603
▁caus	-11.6616
lance	-11.6622
▁manners	-11.6629
▁electric	-11.6631
ification	-11.6633
▁tradition	-11.6634
▁Sur	-11.6649
▁Viktor	-11.6651
▁atmosphere	-11.6651
▁cooperation	-11.6651
▁fifth	-11.6651
▁hamburger	-11.6651
▁rifle	-11.6651
▁satellite	-11.6651
▁succeed	-11.6651
▁assigned	-11.6651
▁disagree	-11.6651
▁Webster	-11.6651
▁install	-11.6651
▁Emily	-11.6652
▁shotgun	-11.6652
▁existence	-11.6652
▁underground	-11.6653
▁reference	-11.6654
▁Duff	-11.6654
▁Duke	-11.6654
▁Buff	-11.6654
▁Board	-11.6654
▁lick	-11.6656
▁sucks	-11.6661
▁Jackson	-11.6665
▁generally	-11.667
▁warned	-11.6676
▁bay	-11.668
▁pm	-11.6689
▁touching	-11.6698
Th	-11.6698
▁candy	-11.6699
born	-11.6699
▁arrangements	-11.6704
▁meantime	-11.6709
▁behave	-11.6713
▁escaped	-11.6719
▁Scar	-11.6725
je	-11.6728
ckle	-11.6732
ien	-11.6739
▁damaged	-11.674
▁interfere	-11.6759
▁Vice	-11.676
▁boarding	-11.6766
▁goddamned	-11.6769
▁gum	-11.6782
▁Speak	-11.6791
▁temp	-11.6799
▁Jon	-11.6799
Where	-11.6809
▁Nothin	-11.681
▁gentle	-11.681
▁manufacture	-11.6812
▁Detroit	-11.6813
▁Gentlemen	-11.6813
▁appropriate	-11.6813
▁disaster	-11.6813
▁jewelry	-11.6813
▁jungle	-11.6813
▁worship	-11.6813
▁steel	-11.6813
▁Screw	-11.6813
▁occurred	-11.6813
▁electronic	-11.6813
▁`	-11.6813
▁Clear	-11.6813
▁refrigerator	-11.6813
▁pride	-11.6813
▁Chicken	-11.6814
▁blanket	-11.6814
▁makin	-11.6814
▁Seriously	-11.6814
▁Horse	-11.6814
▁penny	-11.6814
▁Irish	-11.6814
▁Johnnie	-11.6815
▁paperwork	-11.6816
▁Step	-11.6817
▁fries	-11.6817
▁Grail	-11.6818
▁Data	-11.6819
▁Peel	-11.682
▁Sim	-11.682
▁comment	-11.6824
▁poem	-11.6826
▁clothing	-11.683
▁react	-11.6832
terior	-11.6834
▁Coming	-11.6846
▁holy	-11.6847
▁Ruth	-11.6855
▁buses	-11.6863
Who	-11.6874
rich	-11.6884
▁accounting	-11.6893
ji	-11.6937
▁Zi	-11.6941
made	-11.6949
▁disappoint	-11.6959
▁PC	-11.6962
Would	-11.6972
mouth	-11.6972
▁Francis	-11.6975
▁Although	-11.6976
▁Comrade	-11.6976
▁Cooper	-11.6976
▁Dunbar	-11.6976
▁corporate	-11.6976
▁digital	-11.6976
▁executive	-11.6976
▁explore	-11.6976
▁generous	-11.6976
▁marvelous	-11.6976
▁privilege	-11.6976
▁registration	-11.6976
▁souvenir	-11.6976
▁Senate	-11.6976
▁Valentine	-11.6976
▁battery	-11.6976
▁palace	-11.6976
▁remote	-11.6976
▁overseas	-11.6976
▁slice	-11.6977
▁clinic	-11.6977
▁Bureau	-11.6977
▁Seattle	-11.6977
▁variety	-11.6977
▁Correct	-11.6977
▁region	-11.6977
▁Nixon	-11.6977
▁apparently	-11.6978
▁personnel	-11.6978
▁stir	-11.6979
▁clip	-11.6979
▁shuttle	-11.6979
000	-11.6981
▁highway	-11.6985
▁coach	-11.6988
▁Judy	-11.6988
▁tub	-11.6992
▁Catch	-11.6994
▁Gate	-11.6997
▁Todd	-11.6997
▁continu	-11.7003
▁Full	-11.7015
▁End	-11.7018
pose	-11.702
▁rank	-11.702
▁catching	-11.7023
done	-11.7031
▁wishes	-11.7046
▁Beat	-11.7047
▁sue	-11.7049
▁introduced	-11.706
▁tar	-11.7073
▁alley	-11.7077
▁cor	-11.708
▁peaceful	-11.7086
▁Wu	-11.7088
▁critic	-11.709
▁propose	-11.7115
oma	-11.7116
▁45	-11.7134
power	-11.7139
wise	-11.7142
▁Secret	-11.7142
▁Arthur	-11.7143
▁Brooklyn	-11.7143
▁DAY	-11.7143
▁Elvis	-11.7143
▁Mulwray	-11.7143
▁buzz	-11.7143
▁expand	-11.7143
▁finance	-11.7143
▁hobby	-11.7143
▁religion	-11.7143
▁unfair	-11.7143
▁Freddie	-11.7143
▁romance	-11.7143
▁scheme	-11.7143
▁instant	-11.7143
▁flee	-11.7144
▁shore	-11.7144
▁rotten	-11.7144
▁narrow	-11.7144
▁Child	-11.7144
▁transportation	-11.7146
▁NOW	-11.7146
▁terrorist	-11.7146
▁Glenn	-11.7147
▁label	-11.7148
▁Barry	-11.7149
▁flame	-11.715
▁booth	-11.7151
▁publicity	-11.7152
▁download	-11.7152
▁candle	-11.7153
▁Homer	-11.7156
▁deadline	-11.7158
▁assist	-11.7159
▁Came	-11.7165
▁Made	-11.7165
▁confirmed	-11.7165
▁Scotty	-11.7166
▁employer	-11.7169
fucking	-11.7183
▁moron	-11.7206
▁relaxed	-11.7212
lves	-11.7216
▁Buy	-11.7221
▁pushing	-11.7224
▁ARE	-11.7224
▁wing	-11.7234
▁relative	-11.7245
▁protecting	-11.7257
▁announce	-11.7263
▁retire	-11.7283
▁pill	-11.7284
▁del	-11.7285
▁publish	-11.7297
▁grant	-11.7299
▁seal	-11.7302
▁Honest	-11.7306
▁darlin	-11.7309
▁College	-11.7313
▁THIS	-11.7313
▁flew	-11.7313
▁impulse	-11.7313
▁psychiatrist	-11.7313
▁Hospital	-11.7313
▁Ripley	-11.7313
▁length	-11.7313
▁frequent	-11.7313
▁Israel	-11.7313
▁snack	-11.7313
▁Holly	-11.7313
▁content	-11.7313
▁Stanley	-11.7313
▁whale	-11.7314
▁surgeon	-11.7314
▁Teddy	-11.7315
▁Bridge	-11.7315
▁renew	-11.7316
▁Course	-11.7317
▁Marcus	-11.7319
▁passage	-11.7319
▁Loan	-11.7321
▁disk	-11.7323
▁sounded	-11.7324
▁temper	-11.7324
▁Neil	-11.7324
▁attracted	-11.7324
▁Coke	-11.7325
▁Whenever	-11.7327
cky	-11.7329
▁beans	-11.7332
▁demon	-11.7334
▁cheating	-11.7338
▁sack	-11.7346
ural	-11.7348
▁dumped	-11.7365
▁climbing	-11.7368
▁Heh	-11.7373
▁Wild	-11.7382
▁hid	-11.7409
▁pad	-11.7411
▁listened	-11.7414
▁MO	-11.7416
rise	-11.7419
▁stamp	-11.7421
berg	-11.7436
will	-11.7446
Here	-11.7454
▁wr	-11.7468
▁poll	-11.747
▁convict	-11.748
thousand	-11.748
please	-11.748
When	-11.7481
▁tro	-11.7482
ask	-11.7484
▁Blood	-11.7485
▁Building	-11.7485
▁Hannah	-11.7485
▁burglar	-11.7485
▁extension	-11.7485
▁imagination	-11.7485
▁junior	-11.7485
▁skull	-11.7485
▁unbelievable	-11.7485
▁Computer	-11.7485
▁Tyler	-11.7485
▁anxious	-11.7485
▁cheek	-11.7485
▁revolution	-11.7485
▁creative	-11.7485
▁Guard	-11.7485
▁railroad	-11.7485
▁freezing	-11.7485
▁Mountain	-11.7485
▁Hitler	-11.7485
▁activity	-11.7485
▁envy	-11.7486
▁giant	-11.7486
▁chapter	-11.7487
▁lean	-11.749
▁Stick	-11.749
▁exhausted	-11.749
▁shine	-11.7492
Al	-11.7499
▁Party	-11.7499
▁Suit	-11.75
▁Lock	-11.7501
LY	-11.7508
▁Gosh	-11.751
BA	-11.7511
atory	-11.7532
▁Off	-11.7545
▁pushed	-11.7547
▁shortly	-11.7551
EM	-11.7554
▁sole	-11.7558
▁poster	-11.7562
udge	-11.7564
▁diver	-11.7581
▁jumping	-11.7582
99	-11.7589
▁drawer	-11.7596
▁rose	-11.7604
▁Dana	-11.7626
▁Pink	-11.7632
Course	-11.7656
Good	-11.7656
▁freeze	-11.7659
▁Dignan	-11.766
▁capacity	-11.766
▁inviting	-11.766
▁regulation	-11.766
▁Peace	-11.766
▁unique	-11.766
▁Third	-11.766
▁Truman	-11.766
▁distinct	-11.766
▁Sulu	-11.7661
▁Word	-11.7661
▁Iraq	-11.7661
▁Virginia	-11.7661
▁western	-11.7661
▁bun	-11.7661
▁Express	-11.7661
▁Navy	-11.7661
▁rubber	-11.7662
▁Freddy	-11.7662
▁cough	-11.7663
▁dropping	-11.7664
▁punk	-11.7664
▁missile	-11.7666
▁darkness	-11.7667
▁detect	-11.7667
▁Shaw	-11.7668
▁Pack	-11.7669
▁alert	-11.7673
▁invented	-11.7674
▁belly	-11.7676
▁kin	-11.7679
▁cheated	-11.768
▁shave	-11.7682
▁answered	-11.7685
ground	-11.7691
▁butcher	-11.7691
▁classic	-11.7696
▁Hum	-11.7707
▁added	-11.7721
▁crossed	-11.7735
▁Hank	-11.7741
▁Carol	-11.7746
▁Dog	-11.7747
angle	-11.776
▁arrangement	-11.7784
▁CAN	-11.7813
▁cleared	-11.7818
▁Leg	-11.7832
position	-11.7832
mission	-11.7833
yeah	-11.7834
bird	-11.7836
▁takin	-11.7837
▁hoo	-11.7838
▁Anthony	-11.7839
▁Catholic	-11.7839
▁Governor	-11.7839
▁cocaine	-11.7839
▁compromise	-11.7839
▁graduation	-11.7839
▁phony	-11.7839
▁profile	-11.7839
▁recruit	-11.7839
▁thirsty	-11.7839
▁Truth	-11.7839
▁dawn	-11.7839
▁Psych	-11.7839
▁mercy	-11.7839
▁adopt	-11.7839
▁whiskey	-11.7839
▁afterwards	-11.7839
▁pepper	-11.784
▁faint	-11.784
▁construction	-11.784
▁Donald	-11.784
▁Leonard	-11.7841
▁haircut	-11.7841
▁wow	-11.7843
▁unfortunately	-11.7845
▁Merry	-11.7846
▁mighty	-11.7852
▁nest	-11.7852
▁Join	-11.7854
▁County	-11.7857
▁traveler	-11.7866
▁presentation	-11.7866
▁Mostly	-11.7871
IF	-11.7876
▁comic	-11.7882
▁Juliet	-11.7886
▁Arc	-11.7901
▁Qui	-11.7903
▁locker	-11.7906
▁March	-11.7923
▁Ross	-11.7927
fall	-11.7929
To	-11.794
▁logical	-11.7943
▁treating	-11.7949
▁completed	-11.7952
eller	-11.7957
▁scheduled	-11.7959
▁landed	-11.7959
▁stepp	-11.796
▁needle	-11.7961
ronic	-11.798
▁farmer	-11.7993
▁bleed	-11.8
rio	-11.801
▁robber	-11.8013
▁unfortunate	-11.8015
▁Austin	-11.8021
▁Elliot	-11.8021
▁Lampert	-11.8021
▁Private	-11.8021
▁Vulcan	-11.8021
▁Yellow	-11.8021
▁ambulance	-11.8021
▁click	-11.8021
▁conclusion	-11.8021
▁conscience	-11.8021
▁episode	-11.8021
▁lunatic	-11.8021
▁paranoid	-11.8021
▁servant	-11.8021
▁Animal	-11.8021
▁session	-11.8021
▁lipstick	-11.8021
▁motive	-11.8021
▁defeat	-11.8021
▁Left	-11.8021
▁timing	-11.8021
▁reveal	-11.8021
aught	-11.8022
▁cafe	-11.8022
▁civilian	-11.8022
▁stall	-11.8022
▁cabinet	-11.8023
▁pork	-11.8023
▁beast	-11.803
▁classical	-11.8032
▁twisted	-11.8034
▁witnesses	-11.8035
▁psychic	-11.8045
▁bio	-11.8049
cross	-11.8051
▁Maria	-11.8051
▁Gray	-11.8051
▁Kent	-11.8055
▁passes	-11.8056
bidden	-11.8056
▁Gal	-11.8057
▁Lab	-11.8058
▁mistaken	-11.8067
▁marked	-11.8072
▁Deal	-11.8084
▁Cuban	-11.8087
▁complaining	-11.8088
▁35	-11.8098
▁prop	-11.8137
rink	-11.814
▁march	-11.8146
▁folk	-11.8158
▁prepar	-11.8163
▁Lie	-11.8168
▁threaten	-11.8174
dog	-11.8192
view	-11.8197
▁Command	-11.8198
burn	-11.8202
▁December	-11.8206
▁Gittes	-11.8206
▁Halloween	-11.8206
▁Interesting	-11.8206
▁Kansas	-11.8206
▁Kramer	-11.8206
▁Rebecca	-11.8206
▁appetite	-11.8206
▁cinema	-11.8206
▁crisis	-11.8206
▁delicate	-11.8206
▁guitar	-11.8206
▁injured	-11.8206
▁observe	-11.8206
▁radiation	-11.8206
▁survey	-11.8206
▁turkey	-11.8206
▁violent	-11.8206
▁Dinner	-11.8206
▁Evil	-11.8206
▁Hudson	-11.8206
▁Pacific	-11.8206
▁cruise	-11.8206
▁generation	-11.8206
▁mechanic	-11.8206
▁slut	-11.8206
▁Gonna	-11.8206
▁random	-11.8206
▁jeans	-11.8206
▁drill	-11.8206
▁reject	-11.8206
▁transaction	-11.8206
▁tomato	-11.8206
▁retard	-11.8206
▁keen	-11.8207
▁Skipper	-11.8207
▁Throw	-11.8207
think	-11.8207
▁poetry	-11.8208
▁poker	-11.8208
▁phase	-11.8208
▁potatoes	-11.8209
▁Instead	-11.8209
▁mommy	-11.821
▁counselor	-11.821
▁tele	-11.8211
▁grace	-11.8212
▁Oak	-11.8213
▁Buck	-11.8213
▁Game	-11.8215
▁git	-11.8215
▁Meaning	-11.8224
▁Bert	-11.8227
order	-11.8227
▁threatening	-11.8227
fire	-11.8235
Hey	-11.8239
ational	-11.8241
▁bitter	-11.8243
▁interviewer	-11.825
▁Par	-11.8257
liness	-11.8259
▁internal	-11.8262
▁rape	-11.8278
▁mug	-11.8282
ju	-11.8296
▁discussed	-11.8299
▁dancer	-11.8299
▁anger	-11.831
▁handled	-11.8311
▁seller	-11.8313
heat	-11.8326
gun	-11.833
▁gee	-11.8338
▁comb	-11.8366
▁float	-11.8374
▁stab	-11.838
▁Brazil	-11.8395
▁Jersey	-11.8395
▁Minister	-11.8395
▁Reverend	-11.8395
▁Travel	-11.8395
▁consequence	-11.8395
▁estimate	-11.8395
▁homicide	-11.8395
▁necessarily	-11.8395
▁satisfaction	-11.8395
▁spook	-11.8395
▁symptom	-11.8395
▁tattoo	-11.8395
▁Empire	-11.8395
▁Clean	-11.8395
▁burger	-11.8395
▁silent	-11.8395
▁Negro	-11.8395
▁shelf	-11.8395
▁cotton	-11.8395
▁Through	-11.8395
▁wagon	-11.8395
▁slide	-11.8395
▁Nurse	-11.8395
▁assistance	-11.8395
▁lamp	-11.8396
▁Joanna	-11.8396
▁shade	-11.8396
▁legend	-11.8396
▁Grady	-11.8396
▁Ouch	-11.8397
▁fold	-11.8398
▁Maxine	-11.84
free	-11.8401
▁Marylin	-11.8401
▁raw	-11.8401
▁Temp	-11.8406
▁Cash	-11.8412
▁text	-11.8414
▁Sex	-11.8417
most	-11.8424
▁normally	-11.8425
close	-11.8426
▁Oz	-11.843
▁manual	-11.8437
▁Tak	-11.8438
▁fog	-11.8443
▁Mikey	-11.8451
▁Lama	-11.8453
▁institution	-11.8456
▁advanced	-11.8466
▁tools	-11.8474
▁cooked	-11.8478
▁kissed	-11.8486
▁Shu	-11.85
▁mud	-11.8502
▁closely	-11.8511
▁BA	-11.8514
▁Mel	-11.8515
▁musical	-11.8536
▁Fast	-11.8542
▁differently	-11.8545
▁cleaner	-11.856
wing	-11.8563
ledge	-11.8567
mmed	-11.8567
▁Para	-11.8569
▁refer	-11.8574
▁Qua	-11.8575
▁Inter	-11.8579
wife	-11.8584
Will	-11.8585
▁belief	-11.8587
▁charity	-11.8587
▁fantasy	-11.8587
▁mortgage	-11.8587
▁relief	-11.8587
▁supervisor	-11.8587
▁Beverly	-11.8587
▁Moscow	-11.8587
▁Orleans	-11.8587
▁enormous	-11.8587
▁flavor	-11.8587
▁thorough	-11.8587
▁Evelyn	-11.8587
▁Fox	-11.8587
▁altogether	-11.8587
▁shaking	-11.8587
▁Food	-11.8587
▁initial	-11.8587
▁kidnapped	-11.8587
▁sheep	-11.8587
▁Ranger	-11.8588
▁wives	-11.8588
▁Alvy	-11.8589
▁foul	-11.8589
▁Bomb	-11.859
▁additional	-11.8591
▁Wake	-11.8591
▁Deeds	-11.8592
▁Fill	-11.8592
▁Clay	-11.8593
▁travelling	-11.8593
▁socks	-11.8594
▁Gill	-11.8594
▁Gene	-11.8594
▁Edie	-11.8595
▁worthless	-11.8598
▁Tina	-11.86
oph	-11.86
▁Paulie	-11.8602
▁cloth	-11.8603
▁threatened	-11.8603
▁growth	-11.8604
▁UN	-11.8605
▁convention	-11.861
▁promoted	-11.8611
▁Asian	-11.8613
▁begun	-11.8628
40	-11.8642
▁painful	-11.8646
▁Hah	-11.8657
▁Ball	-11.8664
▁Clo	-11.8667
sieu	-11.8669
▁Lay	-11.8674
▁wage	-11.871
▁cord	-11.8715
new	-11.8718
lai	-11.8733
▁expense	-11.8743
▁Suz	-11.8744
range	-11.8748
▁invent	-11.8764
▁reported	-11.8774
▁dim	-11.8777
Please	-11.8778
class	-11.8778
Mr	-11.8781
▁Hawk	-11.8783
▁Ambassador	-11.8783
▁Arnold	-11.8783
▁Couple	-11.8783
▁Terrific	-11.8783
▁corporation	-11.8783
▁divide	-11.8783
▁genuine	-11.8783
▁identity	-11.8783
▁jazz	-11.8783
▁peanut	-11.8783
▁phrase	-11.8783
▁puzzle	-11.8783
▁serving	-11.8783
▁territory	-11.8783
▁valley	-11.8783
▁widow	-11.8783
▁wolf	-11.8783
▁Dennis	-11.8783
▁Nicole	-11.8783
▁refresh	-11.8783
▁spray	-11.8783
▁workshop	-11.8783
▁Fletch	-11.8783
▁Jacob	-11.8783
▁gossip	-11.8783
▁medication	-11.8783
▁noisy	-11.8783
▁strap	-11.8783
▁Luther	-11.8784
▁stain	-11.8784
▁Ladies	-11.8784
▁rust	-11.8785
▁motion	-11.8786
▁probation	-11.8786
▁deaf	-11.8786
▁Baker	-11.8786
▁selfish	-11.8787
▁scam	-11.8787
▁polluti	-11.8789
▁household	-11.879
▁Honestly	-11.879
▁Face	-11.8792
▁Sara	-11.8793
▁sector	-11.8793
▁India	-11.8797
▁published	-11.8801
▁matches	-11.8803
ark	-11.881
▁Wally	-11.8813
▁yelling	-11.8814
▁slot	-11.8828
▁entering	-11.8833
▁lawn	-11.8839
▁pretending	-11.8846
rock	-11.8848
▁county	-11.8849
▁Though	-11.8867
▁finest	-11.8893
▁relaxing	-11.8894
cop	-11.8897
▁hooker	-11.8911
stitution	-11.8919
▁trim	-11.8926
▁stare	-11.8928
▁dive	-11.8964
▁betray	-11.8972
roid	-11.8973
aaaa	-11.8974
Just	-11.8978
▁Norma	-11.8979
▁loyal	-11.8982
▁Gabriel	-11.8983
▁Objection	-11.8983
▁analysis	-11.8983
▁contrary	-11.8983
▁hammer	-11.8983
▁sacred	-11.8983
▁struggle	-11.8983
▁victory	-11.8983
▁whisper	-11.8983
▁worries	-11.8983
▁|	-11.8983
▁Alfred	-11.8983
▁Found	-11.8983
▁Greek	-11.8983
▁silence	-11.8983
▁reliable	-11.8983
▁physics	-11.8983
▁ATM	-11.8983
▁Break	-11.8983
▁Warren	-11.8983
▁laptop	-11.8983
▁saint	-11.8984
▁ladder	-11.8984
▁digging	-11.8984
▁patch	-11.8986
▁Somehow	-11.8988
▁fuss	-11.8993
▁upper	-11.8998
hour	-11.9007
▁Justice	-11.901
▁earned	-11.9016
▁organ	-11.9017
lemme	-11.9018
▁strain	-11.9027
▁bon	-11.9033
▁rode	-11.9041
woman	-11.9042
▁refused	-11.9047
▁pier	-11.9049
▁Gru	-11.9067
▁Cold	-11.9071
▁searching	-11.9072
▁28	-11.9086
IE	-11.909
▁pit	-11.9094
IP	-11.9101
acle	-11.9105
▁Quit	-11.9105
▁Cuba	-11.9113
▁kissing	-11.9115
▁70	-11.9116
▁Trying	-11.9123
▁Shi	-11.9135
▁parent	-11.9158
▁convent	-11.9163
▁Moon	-11.9178
break	-11.9182
▁addition	-11.9183
storm	-11.9184
▁Chrissake	-11.9187
▁Gallagher	-11.9187
▁Knock	-11.9187
▁Murder	-11.9187
▁Thompson	-11.9187
▁circuit	-11.9187
▁congratulations	-11.9187
▁custody	-11.9187
▁entitled	-11.9187
▁examination	-11.9187
▁flood	-11.9187
▁global	-11.9187
▁happier	-11.9187
▁motorcycle	-11.9187
▁qualification	-11.9187
▁scientific	-11.9187
▁seafood	-11.9187
▁vacuum	-11.9187
▁Depends	-11.9187
▁Oscar	-11.9187
▁Coast	-11.9187
▁micro	-11.9187
▁civilization	-11.9187
▁amaze	-11.9187
▁parole	-11.9187
▁central	-11.9187
▁admission	-11.9188
▁pimp	-11.9188
▁backwards	-11.9188
▁engagement	-11.9188
▁haunt	-11.919
▁blade	-11.919
▁brake	-11.919
▁impact	-11.919
▁sunny	-11.919
▁GOT	-11.919
▁mobile	-11.919
▁Victoria	-11.9192
▁European	-11.9192
▁Sixty	-11.9192
▁cookies	-11.9193
▁vow	-11.9193
▁lane	-11.9197
▁Wish	-11.9198
RY	-11.9201
▁attached	-11.9202
▁vice	-11.9202
▁determined	-11.9209
▁recommendation	-11.921
▁der	-11.9221
▁proposed	-11.9223
▁tender	-11.9225
▁hose	-11.923
▁removed	-11.9233
▁skiing	-11.9238
▁amuse	-11.924
▁Used	-11.925
▁Gun	-11.9251
▁centre	-11.9254
▁Gran	-11.9262
▁kicking	-11.93
12	-11.9304
▁tested	-11.9336
▁acted	-11.9341
▁explained	-11.9353
▁visited	-11.9364
▁120	-11.937
▁exc	-11.9375
ether	-11.9376
keeper	-11.9379
▁Arm	-11.9384
▁Personal	-11.9389
Maybe	-11.9391
Neil	-11.9392
Some	-11.9395
▁Caitlin	-11.9396
▁Crawford	-11.9396
▁Deposit	-11.9396
▁Egypt	-11.9396
▁Hawaii	-11.9396
▁Knox	-11.9396
▁Loretta	-11.9396
▁Manhattan	-11.9396
▁Nonsense	-11.9396
▁Palace	-11.9396
▁Science	-11.9396
▁Venice	-11.9396
▁Wynant	-11.9396
▁cafeteria	-11.9396
▁escort	-11.9396
▁explode	-11.9396
▁insect	-11.9396
▁misunderstand	-11.9396
▁necklace	-11.9396
▁privacy	-11.9396
▁smiling	-11.9396
▁violin	-11.9396
▁whistle	-11.9396
▁DNA	-11.9396
▁curtain	-11.9396
▁drank	-11.9396
▁mysterious	-11.9396
▁niece	-11.9396
▁stream	-11.9396
▁oath	-11.9396
▁sheriff	-11.9396
▁reverse	-11.9396
▁dictat	-11.9396
▁HAVE	-11.9396
▁division	-11.9396
▁ankle	-11.9396
▁Opera	-11.9396
pack	-11.9396
▁confidential	-11.9396
▁indicate	-11.9396
▁compete	-11.9397
▁membership	-11.9397
▁Satan	-11.9397
▁Town	-11.9398
▁Somewhere	-11.9398
▁grape	-11.9398
▁Drew	-11.9399
▁Dickson	-11.94
▁Blow	-11.94
▁Lula	-11.9402
▁handy	-11.9404
▁Crow	-11.9404
▁bait	-11.9407
▁taxes	-11.9408
▁betrayed	-11.9412
▁Erin	-11.9422
▁Roll	-11.9424
▁entered	-11.9435
▁wounded	-11.9439
500	-11.9441
▁borrowed	-11.9449
▁Tan	-11.9476
▁hatch	-11.9477
▁printed	-11.9482
▁hike	-11.9495
▁Kip	-11.9502
▁pose	-11.952
▁deserved	-11.9534
ternal	-11.9549
▁400	-11.955
▁raining	-11.9551
name	-11.9573
eye	-11.9582
▁guilt	-11.96
course	-11.9605
nothing	-11.9606
▁chap	-11.9606
▁automatic	-11.9608
▁Beaumont	-11.9608
▁Carpenter	-11.9608
▁Family	-11.9608
▁Jordan	-11.9608
▁Vanessa	-11.9608
▁dinosaur	-11.9608
▁gambling	-11.9608
▁polish	-11.9608
▁qualities	-11.9608
▁satisfy	-11.9608
▁chamber	-11.9608
▁liquid	-11.9608
▁presume	-11.9608
▁reunion	-11.9608
▁Samuel	-11.9608
▁domestic	-11.9608
▁Consider	-11.9608
▁Double	-11.9608
▁barrel	-11.9608
▁hustle	-11.9609
▁banana	-11.9609
kill	-11.9609
▁extend	-11.9609
▁Turk	-11.9609
▁representative	-11.9609
▁Kenny	-11.9609
▁fiction	-11.9609
▁prospect	-11.961
▁electricity	-11.961
▁status	-11.9611
▁crop	-11.9611
▁selection	-11.9612
▁inject	-11.9612
▁laser	-11.9612
▁Owen	-11.9613
▁Report	-11.9614
▁teenager	-11.9615
▁Personally	-11.9615
eh	-11.9617
▁dame	-11.9618
▁Job	-11.9618
▁modest	-11.9619
▁cub	-11.9621
cake	-11.9623
▁Randy	-11.9623
▁heels	-11.9624
▁bribe	-11.9624
▁restore	-11.9626
action	-11.9626
▁fitting	-11.9626
▁sealed	-11.963
▁troops	-11.9633
▁Op	-11.9634
▁Around	-11.9644
▁forgetting	-11.9645
▁Walker	-11.9651
▁deeply	-11.9652
▁required	-11.9668
▁mill	-11.9674
▁Cab	-11.9676
Hi	-11.9679
80	-11.9681
ggle	-11.9698
▁recommended	-11.9703
▁parked	-11.9716
▁worthy	-11.9723
▁Mean	-11.9725
▁Babe	-11.9732
Elect	-11.978
Go	-11.9789
▁Fan	-11.979
gua	-11.9801
▁bush	-11.9803
▁twist	-11.981
▁attach	-11.9814
craft	-11.982
piece	-11.9824
▁Canadian	-11.9826
▁Deborah	-11.9826
▁Ninotchka	-11.9826
▁Shakespeare	-11.9826
▁WHO	-11.9826
▁album	-11.9826
▁arriving	-11.9826
▁bicycle	-11.9826
▁buddies	-11.9826
▁climate	-11.9826
▁fascinating	-11.9826
▁identify	-11.9826
▁incredibly	-11.9826
▁philosophy	-11.9826
▁strategy	-11.9826
▁torpedo	-11.9826
▁Auggie	-11.9826
▁Silver	-11.9826
▁cripple	-11.9826
▁gesture	-11.9826
▁ABC	-11.9826
▁accent	-11.9826
▁Wolf	-11.9826
▁vouch	-11.9826
▁Latin	-11.9826
▁hostile	-11.9827
▁Point	-11.9827
▁Harris	-11.9827
▁childhood	-11.9827
▁organic	-11.9827
▁abuse	-11.9829
▁Seventy	-11.9829
▁Barton	-11.9829
▁worn	-11.983
▁Sammy	-11.983
▁scenery	-11.9831
▁shipping	-11.9833
▁Que	-11.9834
neck	-11.9839
May	-11.9845
▁overnight	-11.9847
▁madame	-11.9852
▁suffered	-11.9856
▁producer	-11.986
▁sailing	-11.9862
▁PL	-11.9862
▁intended	-11.9869
▁shocked	-11.9871
ONE	-11.9882
Then	-11.9886
www	-11.9898
▁businessman	-11.9901
▁comedy	-11.9902
boat	-11.9906
▁Mack	-11.9912
itude	-11.9913
▁survived	-11.9917
▁quo	-11.9919
▁rating	-11.9924
ending	-11.9926
▁honored	-11.9927
▁75	-11.9928
▁driven	-11.993
▁foundation	-11.9937
offer	-11.9958
change	-11.998
▁Ran	-11.9985
▁embarrass	-12.0011
▁attract	-12.0025
▁frank	-12.0043
▁assassin	-12.0045
▁Casablanca	-12.0048
▁Doolittle	-12.0048
▁Houston	-12.0048
▁Malkovich	-12.0048
▁McMurphy	-12.0048
▁Morgan	-12.0048
▁Philadelphia	-12.0048
▁Saavik	-12.0048
▁Tokyo	-12.0048
▁Wallace	-12.0048
▁Yankee	-12.0048
▁absurd	-12.0048
▁assault	-12.0048
▁dizzy	-12.0048
▁negotiation	-12.0048
▁occupation	-12.0048
▁possibilities	-12.0048
▁Dewey	-12.0048
▁corrupt	-12.0048
▁coffin	-12.0048
▁typing	-12.0048
▁Genesis	-12.0048
▁Laurie	-12.0048
▁burst	-12.0048
▁tornado	-12.0048
▁scholarship	-12.0048
▁Smell	-12.0048
▁Smoke	-12.0048
▁plague	-12.0048
▁favourite	-12.0048
▁Wonder	-12.0048
▁requirements	-12.0048
▁acid	-12.0049
▁bodyguard	-12.0049
▁prime	-12.0049
▁Strange	-12.0049
▁restrict	-12.0049
▁native	-12.0049
▁Suzie	-12.005
▁firing	-12.005
▁balloon	-12.005
▁HERE	-12.005
▁Regula	-12.005
▁princess	-12.0051
▁narc	-12.0051
▁wrist	-12.0052
▁Merle	-12.0053
thank	-12.0054
▁Kiss	-12.0057
▁employed	-12.0063
▁Camp	-12.0069
God	-12.0073
▁daylight	-12.0074
ographic	-12.0077
▁Rex	-12.0077
▁pole	-12.0082
▁regarding	-12.0093
▁shitty	-12.0098
▁Geez	-12.0104
38	-12.0109
▁sofa	-12.0114
▁Frankly	-12.0131
Ho	-12.0139
▁oldest	-12.014
▁hunter	-12.0167
▁ka	-12.0202
ough	-12.0204
▁promote	-12.0247
▁impress	-12.0257
▁immediate	-12.0269
▁definite	-12.0269
▁terror	-12.0271
▁runnin	-12.0272
▁Baltimore	-12.0275
▁Corleone	-12.0275
▁Creasy	-12.0275
▁Cynthia	-12.0275
▁Deputy	-12.0275
▁Maggie	-12.0275
▁Tracy	-12.0275
▁bluff	-12.0275
▁cemetery	-12.0275
▁cheque	-12.0275
▁destruction	-12.0275
▁explosion	-12.0275
▁hobbies	-12.0275
▁judgment	-12.0275
▁leopard	-12.0275
▁magnificent	-12.0275
▁slaughter	-12.0275
▁suspicion	-12.0275
▁trading	-12.0275
▁trousers	-12.0275
▁vegetarian	-12.0275
▁Stupid	-12.0275
▁illusion	-12.0275
▁interpret	-12.0275
▁wicked	-12.0275
▁Basically	-12.0275
▁Manager	-12.0275
▁Saunders	-12.0275
▁chef	-12.0275
▁pigeon	-12.0275
▁slack	-12.0275
▁thrust	-12.0275
▁Josie	-12.0275
▁psychological	-12.0275
▁operator	-12.0275
▁Epps	-12.0275
▁Hopefully	-12.0276
▁blend	-12.0276
▁chemistry	-12.0276
▁breed	-12.0276
▁Write	-12.0276
▁spark	-12.0276
▁importance	-12.0276
▁Valley	-12.0276
ightseeing	-12.0276
▁carrot	-12.0276
▁unknown	-12.0277
▁Kurtz	-12.0277
▁ditch	-12.0277
▁admir	-12.0277
▁Music	-12.0277
▁Outside	-12.0278
▁yuh	-12.0278
easant	-12.0278
▁Vol	-12.0279
▁remark	-12.028
▁HER	-12.028
▁dramatic	-12.0281
▁classified	-12.0282
▁Cobb	-12.0282
▁heroin	-12.0282
▁achievement	-12.0283
▁flush	-12.0284
▁strictly	-12.0286
▁abandoned	-12.0287
wash	-12.0287
▁stew	-12.029
ector	-12.0305
▁regularly	-12.0306
hmm	-12.0307
▁thoughtful	-12.0314
▁hood	-12.0322
etti	-12.0325
zzle	-12.0331
▁dip	-12.0335
▁Ohio	-12.0359
Your	-12.0369
▁watches	-12.0378
▁Vic	-12.0389
fashioned	-12.0394
coat	-12.0399
▁DEA	-12.0401
▁Hoo	-12.0423
▁Chin	-12.0438
▁Chen	-12.0443
▁boost	-12.0446
▁employ	-12.0455
gate	-12.0455
COM	-12.046
maker	-12.0473
ional	-12.0476
▁pinch	-12.0493
bone	-12.05
▁distract	-12.0501
▁counsel	-12.0502
walk	-12.0503
▁exhibit	-12.0504
▁mornin	-12.0505
▁kiddin	-12.0505
▁error	-12.0507
▁AIDS	-12.0508
▁Bernstein	-12.0508
▁Birthday	-12.0508
▁CONTINUED	-12.0508
▁Fantastic	-12.0508
▁Klingon	-12.0508
▁Malcolm	-12.0508
▁Mulder	-12.0508
▁Museum	-12.0508
▁Preysing	-12.0508
▁Straight	-12.0508
▁approval	-12.0508
▁challenging	-12.0508
▁corridor	-12.0508
▁explosive	-12.0508
▁kilometers	-12.0508
▁morgue	-12.0508
▁nephew	-12.0508
▁postcard	-12.0508
▁primary	-12.0508
▁puppet	-12.0508
▁sponsor	-12.0508
▁stereo	-12.0508
▁tragedy	-12.0508
▁unexpected	-12.0508
▁Foley	-12.0508
▁nigga	-12.0508
▁flea	-12.0508
▁Davis	-12.0508
▁amateur	-12.0508
▁Smart	-12.0508
▁Ordell	-12.0508
▁outstanding	-12.0508
▁entry	-12.0508
▁tiger	-12.0508
▁bracelet	-12.0508
▁Anderson	-12.0508
▁maniac	-12.0508
▁darn	-12.0508
▁Edgar	-12.0508
▁plum	-12.0509
▁cockroaches	-12.0509
▁wrapped	-12.0509
▁Chance	-12.0509
▁massage	-12.0509
▁crank	-12.0509
▁hunch	-12.0509
▁Grandpa	-12.0509
▁1,000	-12.051
because	-12.051
▁violation	-12.051
▁naive	-12.0513
▁preparation	-12.0514
▁unlike	-12.0515
▁elected	-12.0516
▁sandwiches	-12.0516
▁musician	-12.052
▁Juno	-12.0525
▁Saw	-12.0529
▁outdoor	-12.0529
▁Sooner	-12.0531
▁hmm	-12.0533
▁stable	-12.0535
▁shred	-12.0545
▁correctly	-12.0548
▁26	-12.0549
▁mainly	-12.0551
▁Luca	-12.0552
▁closest	-12.0571
▁assured	-12.0573
▁painted	-12.0577
▁deeper	-12.0577
case	-12.0579
▁rebel	-12.0586
evo	-12.0595
▁laughed	-12.0614
▁armor	-12.0626
▁Beg	-12.0626
▁suggested	-12.063
▁Gen	-12.0639
▁Diz	-12.0649
handed	-12.0654
ipped	-12.0657
Ha	-12.0665
▁PO	-12.0682
▁Pig	-12.0698
minded	-12.0714
spite	-12.0742
▁basket	-12.0746
occupied	-12.0746
▁Control	-12.0746
▁Explain	-12.0746
▁November	-12.0746
▁Peggy	-12.0746
▁accurate	-12.0746
▁applied	-12.0746
▁balcony	-12.0746
▁celebration	-12.0746
▁confusing	-12.0746
▁elephant	-12.0746
▁encounter	-12.0746
▁essential	-12.0746
▁excitement	-12.0746
▁festival	-12.0746
▁fulfill	-12.0746
▁happily	-12.0746
▁identification	-12.0746
▁maximum	-12.0746
▁mortal	-12.0746
▁quantity	-12.0746
▁quarrel	-12.0746
▁shrimp	-12.0746
▁supplier	-12.0746
▁suspend	-12.0746
▁wisdom	-12.0746
▁Finish	-12.0746
▁absent	-12.0746
▁eager	-12.0746
▁Utah	-12.0746
▁Lewis	-12.0746
▁Adele	-12.0746
▁Martha	-12.0746
▁submit	-12.0746
▁riot	-12.0746
▁Totally	-12.0746
▁royal	-12.0746
▁Merrick	-12.0746
▁Barbie	-12.0746
▁Corporation	-12.0747
▁depart	-12.0747
▁duties	-12.0747
▁Dutch	-12.0748
▁limb	-12.0749
▁Thou	-12.0749
▁groom	-12.0749
▁illness	-12.075
▁expectations	-12.075
▁Rico	-12.0751
▁craft	-12.0751
▁settlement	-12.0752
▁Rita	-12.0753
▁Flight	-12.0754
▁Goddamnit	-12.0755
▁Kinda	-12.0756
▁Ruby	-12.0757
▁Fact	-12.076
▁halfway	-12.076
Have	-12.0762
▁fade	-12.0762
39	-12.0762
▁bounce	-12.0767
▁Chang	-12.0768
▁Robin	-12.077
▁disturbed	-12.0773
▁electrical	-12.0774
▁Sco	-12.0781
▁27	-12.0784
▁Neo	-12.0785
trip	-12.0787
▁sucked	-12.0795
addy	-12.0797
▁36	-12.08
▁requested	-12.0801
▁Teach	-12.0802
▁electro	-12.0803
▁Bree	-12.0803
▁Laz	-12.081
▁raped	-12.0821
▁feeding	-12.0841
headed	-12.0849
▁Marie	-12.0855
wee	-12.0867
haw	-12.0871
▁Press	-12.0874
▁Corp	-12.0876
▁FA	-12.0888
▁shove	-12.0899
rance	-12.0909
ouch	-12.0926
▁lame	-12.0931
▁warp	-12.0938
▁Base	-12.0943
MP	-12.0968
▁Frida	-12.0981
American	-12.0985
Could	-12.0985
shirt	-12.0985
road	-12.0986
▁givin	-12.0987
ipping	-12.0987
▁whisk	-12.099
▁Amazing	-12.099
▁Festival	-12.099
▁January	-12.099
▁Lebowski	-12.099
▁Lecter	-12.099
▁Melanie	-12.099
▁Project	-12.099
▁Reynolds	-12.099
▁Soviet	-12.099
▁Teresa	-12.099
▁Vienna	-12.099
▁Zhang	-12.099
▁appetizer	-12.099
▁awkward	-12.099
▁bureau	-12.099
▁competitive	-12.099
▁correspond	-12.099
▁curiosity	-12.099
▁helicopter	-12.099
▁inconvenience	-12.099
▁ingredients	-12.099
▁nickel	-12.099
▁razor	-12.099
▁specimen	-12.099
▁spider	-12.099
▁sunshine	-12.099
▁telegram	-12.099
▁umbrella	-12.099
▁werewolf	-12.099
▁Fifth	-12.099
▁Foreign	-12.099
▁Machine	-12.099
▁Pierce	-12.099
▁Scully	-12.099
▁Raymond	-12.099
▁warrior	-12.099
▁exceed	-12.099
▁Weather	-12.099
▁departure	-12.099
▁greet	-12.099
▁swore	-12.099
▁catalogue	-12.099
▁crystal	-12.099
▁spice	-12.099
▁Batman	-12.099
▁literally	-12.099
▁Lauren	-12.099
▁Carlos	-12.0991
▁Careful	-12.0991
▁Swann	-12.0991
cultural	-12.0991
▁Rowan	-12.0991
▁paycheck	-12.0992
▁slightest	-12.0993
▁apology	-12.0994
▁limo	-12.0995
▁genetic	-12.0996
▁Bones	-12.0997
hhhh	-12.1002
▁Paine	-12.1002
▁rash	-12.1002
▁Human	-12.1005
▁peach	-12.1009
▁annoying	-12.1009
▁specialty	-12.1012
▁granted	-12.1012
▁Spec	-12.1014
▁drawn	-12.1015
▁floating	-12.1017
▁orbit	-12.1018
operative	-12.102
▁hopeless	-12.1029
AND	-12.1034
stick	-12.1036
For	-12.1041
42	-12.1045
▁hooked	-12.1047
▁crashed	-12.1049
▁unable	-12.1054
▁Gone	-12.1054
▁Rio	-12.1061
▁shovel	-12.1081
agging	-12.1115
▁VI	-12.1146
▁800	-12.1149
rough	-12.1162
▁Joel	-12.1163
95	-12.1166
PA	-12.1171
▁profession	-12.1209
▁Shhhh	-12.1211
▁locate	-12.1211
▁expir	-12.1214
[	-12.1235
Bye	-12.1235
check	-12.1237
▁urge	-12.1239
▁Attorney	-12.124
▁Dammit	-12.124
▁Field	-12.124
▁Frederick	-12.124
▁Holiday	-12.124
▁Krueger	-12.124
▁Margaret	-12.124
▁McCoy	-12.124
▁Negative	-12.124
▁Twombley	-12.124
▁WITH	-12.124
▁blouse	-12.124
▁colour	-12.124
▁district	-12.124
▁elegant	-12.124
▁enterprise	-12.124
▁extraordinary	-12.124
▁maintenance	-12.124
▁politician	-12.124
▁virtue	-12.124
▁Chekov	-12.124
▁Econom	-12.124
▁delighted	-12.124
▁fortunate	-12.124
▁plumbing	-12.124
▁ultimate	-12.124
▁utilit	-12.124
▁warehouse	-12.124
▁coupon	-12.124
▁harass	-12.124
▁mutual	-12.124
▁swamp	-12.124
▁housing	-12.124
▁jewels	-12.124
▁Kyle	-12.124
▁awesome	-12.124
▁scout	-12.124
▁venture	-12.124
▁broadcast	-12.124
▁Marquis	-12.124
▁proposition	-12.124
▁yacht	-12.124
▁Stacy	-12.124
▁Dollar	-12.1241
▁Saint	-12.1241
▁Emory	-12.1241
▁unconscious	-12.1241
▁Vicki	-12.1241
▁antique	-12.1241
▁wool	-12.1242
▁Witch	-12.1242
▁priority	-12.1242
▁THERE	-12.1243
▁blackmail	-12.1243
▁attendant	-12.1244
fight	-12.1245
▁attraction	-12.1247
▁insight	-12.1248
▁Finn	-12.1249
▁Sport	-12.1253
▁golden	-12.1255
▁crown	-12.1256
▁Beach	-12.1257
▁accused	-12.1258
▁Donnie	-12.126
INE	-12.1262
▁Rocky	-12.1263
▁Page	-12.1263
▁Dance	-12.1272
22	-12.1281
▁Carla	-12.1283
▁developing	-12.129
▁kindness	-12.1304
▁journalist	-12.1325
▁fairy	-12.1327
▁Kris	-12.1328
▁coma	-12.1334
▁Eye	-12.1346
▁origin	-12.1371
rail	-12.1379
▁Shh	-12.1388
▁Rain	-12.1389
▁Bela	-12.1418
▁Test	-12.1426
▁diploma	-12.143
▁hug	-12.1461
▁absolute	-12.149
Yeah	-12.1491
damn	-12.1492
▁havin	-12.1493
Look	-12.1495
▁Skip	-12.1496
furnished	-12.1496
▁Council	-12.1496
▁Dylan	-12.1496
▁Friedman	-12.1496
▁Matthew	-12.1496
▁System	-12.1496
▁Twice	-12.1496
▁Vivian	-12.1496
▁Wizard	-12.1496
▁beneath	-12.1496
▁compound	-12.1496
▁distress	-12.1496
▁earthquake	-12.1496
▁elbow	-12.1496
▁exploit	-12.1496
▁francs	-12.1496
▁grocery	-12.1496
▁helmet	-12.1496
▁invoice	-12.1496
▁landlord	-12.1496
▁sleeve	-12.1496
▁tremendous	-12.1496
▁vitamin	-12.1496
▁waltz	-12.1496
▁Violet	-12.1496
▁absence	-12.1496
▁investigate	-12.1496
▁rising	-12.1496
▁Misery	-12.1496
▁Place	-12.1496
▁transmit	-12.1496
▁intense	-12.1496
▁bookstore	-12.1496
▁drain	-12.1496
▁inspire	-12.1496
▁sensor	-12.1496
▁tasty	-12.1496
▁purple	-12.1496
▁Simple	-12.1496
▁autograph	-12.1496
▁puke	-12.1497
▁Cathy	-12.1497
▁Garden	-12.1497
▁Panther	-12.1497
▁FUCKING	-12.1497
▁Deep	-12.1497
▁Theater	-12.1497
▁misery	-12.1497
▁consist	-12.1497
▁neutral	-12.1497
▁Philip	-12.1497
▁neuro	-12.1497
▁Burke	-12.1499
▁Crane	-12.1499
▁conscious	-12.15
▁cattle	-12.15
▁Zone	-12.1502
▁wooden	-12.1502
box	-12.1502
▁Franklin	-12.1503
▁rocket	-12.1503
▁Financ	-12.1503
▁Fight	-12.1505
▁Ooh	-12.1505
▁transit	-12.1505
▁Yessir	-12.1505
▁Lila	-12.1511
▁queer	-12.1516
▁Asia	-12.1519
▁relieved	-12.152
▁Marine	-12.1525
▁Inside	-12.1527
▁tense	-12.1537
▁Code	-12.1538
▁Germany	-12.1538
▁32	-12.1538
ERS	-12.1541
▁WAS	-12.1543
pass	-12.1546
UST	-12.1548
▁talented	-12.1553
▁Rub	-12.1553
▁Toto	-12.1556
▁quietly	-12.1558
▁carton	-12.156
andals	-12.156
door	-12.1564
▁Space	-12.1616
78	-12.1662
AAA	-12.1717
▁annoy	-12.1738
▁constant	-12.1753
▁Korea	-12.1753
▁Bloom	-12.1759
▁Dwayne	-12.1759
▁Garrison	-12.1759
▁Information	-12.1759
▁KILL	-12.1759
▁Laszlo	-12.1759
▁Luthor	-12.1759
▁Murray	-12.1759
▁Seymour	-12.1759
▁Sheldrake	-12.1759
▁aggressive	-12.1759
▁conflict	-12.1759
▁conspiracy	-12.1759
▁facial	-12.1759
▁facility	-12.1759
▁investigator	-12.1759
▁oblige	-12.1759
▁obsessed	-12.1759
▁parcel	-12.1759
▁parlor	-12.1759
▁stewardess	-12.1759
▁streak	-12.1759
▁surprising	-12.1759
▁voyage	-12.1759
▁Bernie	-12.1759
▁Britain	-12.1759
▁recipe	-12.1759
▁DID	-12.1759
▁Clyde	-12.1759
▁Medical	-12.1759
▁visual	-12.1759
▁Holland	-12.1759
▁offended	-12.1759
▁pursue	-12.1759
▁Cliff	-12.1759
▁faggot	-12.1759
▁debate	-12.1759
▁Dream	-12.176
▁exclusive	-12.176
▁Scotch	-12.176
▁stove	-12.176
▁Disney	-12.176
▁pearl	-12.176
▁cloak	-12.176
▁Dragon	-12.176
▁repay	-12.176
▁leap	-12.1761
▁employment	-12.1761
▁Shot	-12.1761
▁mouse	-12.1761
▁rib	-12.1761
▁Connell	-12.1761
▁Chinatown	-12.1762
▁Westley	-12.1762
stein	-12.1762
▁Rudy	-12.1763
▁pub	-12.1763
▁harmless	-12.1763
▁Round	-12.1763
▁Pike	-12.1764
▁Kurt	-12.1764
▁bold	-12.1764
▁Papa	-12.1765
▁percentage	-12.1766
▁constantly	-12.1766
▁cunt	-12.1766
▁considerate	-12.1766
▁Alone	-12.1766
▁Market	-12.1766
▁MAN	-12.1768
▁vase	-12.1768
▁preacher	-12.1768
▁Milo	-12.177
▁que	-12.1774
▁Tex	-12.1776
itis	-12.1776
▁physically	-12.1782
▁acceptable	-12.1782
▁reply	-12.1785
▁mock	-12.1786
▁Early	-12.1787
▁jar	-12.1789
▁vegetable	-12.179
known	-12.1801
▁engineering	-12.1801
▁barn	-12.1802
▁dresses	-12.1807
▁curve	-12.1812
▁Martini	-12.182
▁Trip	-12.1836
ference	-12.1838
▁pun	-12.1844
▁Pope	-12.1847
▁gene	-12.1848
grad	-12.1848
▁Class	-12.1858
▁Woo	-12.192
ripping	-12.1928
▁logic	-12.1938
67	-12.194
grade	-12.1984
70	-12.1997
▁determine	-12.2001
alian	-12.2019
▁drama	-12.2023
▁Glen	-12.2024
script	-12.2025
found	-12.2025
child	-12.2026
proof	-12.2026
▁violat	-12.2027
worn	-12.2029
▁architect	-12.2029
▁Clarice	-12.203
▁Flynn	-12.203
▁Impossible	-12.203
▁KNOW	-12.203
▁Kringelein	-12.203
▁Morpheus	-12.203
▁Napoleon	-12.203
▁Public	-12.203
▁Shirley	-12.203
▁Surprise	-12.203
▁WILL	-12.203
▁acknowledg	-12.203
▁airplane	-12.203
▁calendar	-12.203
▁corpse	-12.203
▁destination	-12.203
▁feather	-12.203
▁gratitude	-12.203
▁gravity	-12.203
▁invisible	-12.203
▁obtain	-12.203
▁platform	-12.203
▁principal	-12.203
▁puppy	-12.203
▁suburb	-12.203
▁Group	-12.203
▁Warrior	-12.203
▁Snake	-12.203
▁millionaire	-12.203
▁resident	-12.203
▁devote	-12.203
▁Castle	-12.203
▁History	-12.203
▁Treves	-12.203
▁agenda	-12.203
▁briefcase	-12.203
▁extent	-12.203
▁retreat	-12.203
▁Tibet	-12.203
▁steer	-12.203
▁oven	-12.203
▁Single	-12.203
▁pension	-12.203
▁Ripper	-12.203
▁elder	-12.203
▁facing	-12.2031
▁mild	-12.2031
▁abortion	-12.2031
▁gown	-12.2031
▁passionate	-12.2031
▁knot	-12.2031
▁tribe	-12.2031
▁multi	-12.2032
▁peak	-12.2032
▁fox	-12.2032
▁punishment	-12.2032
▁puttin	-12.2032
▁allowance	-12.2033
▁precisely	-12.2033
▁Knight	-12.2033
▁Golden	-12.2034
▁commitment	-12.2034
▁vent	-12.2035
▁PIN	-12.2035
▁spotted	-12.2036
▁difficulties	-12.204
▁tailor	-12.2042
▁Near	-12.2044
▁fag	-12.2045
▁realistic	-12.2045
▁penis	-12.2047
jun	-12.2048
▁officially	-12.205
▁Hiya	-12.205
▁trailer	-12.2056
▁beaten	-12.2062
▁portion	-12.2067
▁bout	-12.2073
▁gray	-12.2074
▁Pain	-12.2086
▁critical	-12.2091
▁grabbe	-12.2117
ential	-12.2133
▁Bean	-12.2143
▁gap	-12.2159
▁Nan	-12.2161
▁Less	-12.2162
odle	-12.2185
▁peel	-12.2193
▁crate	-12.2194
▁hump	-12.2198
▁fist	-12.2223
▁gag	-12.2232
▁curl	-12.2244
13	-12.2245
stead	-12.2258
▁possess	-12.2287
▁surround	-12.2292
▁bark	-12.2295
▁Anti	-12.2296
cade	-12.2298
Jesus	-12.2302
bedroom	-12.2303
track	-12.2303
Artagnan	-12.2307
▁Adrian	-12.2307
▁Albania	-12.2307
▁Brandon	-12.2307
▁Continue	-12.2307
▁District	-12.2307
▁Fergus	-12.2307
▁Fortunately	-12.2307
▁Maranzano	-12.2307
▁Picture	-12.2307
▁barbecue	-12.2307
▁batteries	-12.2307
▁brutal	-12.2307
▁fabric	-12.2307
▁harbor	-12.2307
▁landscape	-12.2307
▁patrol	-12.2307
▁policies	-12.2307
▁population	-12.2307
▁surveillance	-12.2307
▁technique	-12.2307
▁Current	-12.2307
▁ambition	-12.2307
▁reduction	-12.2307
▁Dolores	-12.2307
▁kingdom	-12.2307
▁scoop	-12.2307
▁Puff	-12.2307
▁historical	-12.2307
▁scrambl	-12.2307
▁Therefore	-12.2307
▁assuming	-12.2307
▁grill	-12.2307
▁Borg	-12.2307
▁decorate	-12.2307
▁sharing	-12.2307
▁dedicate	-12.2307
▁pervert	-12.2307
bound	-12.2308
ivity	-12.2308
▁Santos	-12.2308
▁Molly	-12.2308
▁scum	-12.2308
AKE	-12.2308
▁info	-12.2308
▁cried	-12.2308
▁fridge	-12.2309
▁SHE	-12.2309
▁sufficient	-12.2309
▁infection	-12.2309
▁begging	-12.2309
▁resent	-12.2309
▁Penny	-12.2309
▁OFF	-12.2309
▁erase	-12.2309
throp	-12.2309
▁bolt	-12.2309
▁Josephine	-12.2309
▁cliff	-12.231
▁Stuff	-12.231
▁Joan	-12.2311
▁parade	-12.2311
▁GOD	-12.2311
▁Leland	-12.2312
▁Pure	-12.2312
▁Paper	-12.2313
▁accidentally	-12.2313
▁mature	-12.2313
▁invention	-12.2315
▁Tough	-12.2315
▁Boone	-12.2317
▁Anytime	-12.2317
▁Tripp	-12.2317
▁withdrawal	-12.2319
▁pace	-12.232
▁lowest	-12.232
▁surrounded	-12.2323
▁Feds	-12.2323
link	-12.2324
▁sailor	-12.2326
▁rarely	-12.2327
aud	-12.2328
▁OH	-12.2328
▁dug	-12.2329
▁quitting	-12.2329
▁PG	-12.233
▁hail	-12.2331
▁Spain	-12.2333
▁plead	-12.2333
▁spoiled	-12.2338
▁torn	-12.2342
▁goddamnit	-12.2343
▁junkie	-12.2346
▁dorm	-12.2349
▁Jay	-12.2353
▁cul	-12.236
▁hacker	-12.2385
65	-12.2394
rue	-12.2397
▁Sub	-12.2412
Bout	-12.2423
▁Levi	-12.2444
14	-12.2458
▁Wash	-12.2465
pick	-12.2488
type	-12.2498
▁Dig	-12.2524
▁Pee	-12.2554
▁zip	-12.2567
▁Line	-12.2569
▁Grab	-12.2576
Okay	-12.2588
okay	-12.2589
space	-12.2589
▁potato	-12.2589
IGHT	-12.2592
▁favour	-12.2593
ibility	-12.2593
watch	-12.2593
▁Century	-12.2593
▁Different	-12.2593
▁Embassy	-12.2593
▁Folk	-12.2593
▁Insurance	-12.2593
▁Kubelik	-12.2593
▁LaPlante	-12.2593
▁League	-12.2593
▁Memphis	-12.2593
▁Phoenix	-12.2593
▁Ronnie	-12.2593
▁Ruiz	-12.2593
▁Schwartz	-12.2593
▁Sebastian	-12.2593
▁Trevor	-12.2593
▁allergic	-12.2593
▁athlete	-12.2593
▁calculate	-12.2593
▁cocksucker	-12.2593
▁convenience	-12.2593
▁flexible	-12.2593
▁flirt	-12.2593
▁humiliate	-12.2593
▁mattress	-12.2593
▁obligation	-12.2593
▁pudding	-12.2593
▁pulse	-12.2593
▁ribbon	-12.2593
▁sophisticated	-12.2593
▁straw	-12.2593
▁survivor	-12.2593
▁underestimate	-12.2593
▁utter	-12.2593
▁volume	-12.2593
▁HIM	-12.2593
▁Montana	-12.2593
▁Murphy	-12.2593
▁adorable	-12.2593
▁trauma	-12.2593
▁depressing	-12.2593
▁Bandit	-12.2593
▁seminar	-12.2593
▁valid	-12.2593
▁carbon	-12.2593
▁wrestle	-12.2593
▁scumbag	-12.2593
▁investigating	-12.2593
▁popcorn	-12.2593
▁opposed	-12.2593
▁jammed	-12.2594
▁confront	-12.2594
▁napkin	-12.2594
▁loaf	-12.2594
▁pillow	-12.2594
▁disturbance	-12.2594
▁Secretary	-12.2594
▁Jody	-12.2595
▁Blake	-12.2595
▁combat	-12.2595
▁porch	-12.2596
▁hiking	-12.2596
▁Dante	-12.2597
▁invade	-12.2597
▁lifestyle	-12.2597
▁Fix	-12.2597
▁Zina	-12.2598
▁admitted	-12.2599
▁affection	-12.2599
▁fitness	-12.2604
▁grandma	-12.2604
▁Union	-12.2606
▁possessed	-12.2609
▁Marry	-12.2612
▁freeway	-12.2613
▁Willow	-12.2615
▁Brain	-12.262
▁Hardly	-12.2621
▁Mort	-12.2622
One	-12.2625
▁chin	-12.2629
▁improvement	-12.264
ancy	-12.2641
▁photographer	-12.2667
▁seduce	-12.2675
Did	-12.2678
▁Late	-12.2722
cuse	-12.2725
▁Tran	-12.2748
OL	-12.2776
▁pond	-12.2798
▁Radio	-12.2828
▁Tang	-12.2858
▁efficient	-12.2881
flower	-12.2882
▁livin	-12.2884
drop	-12.2885
minute	-12.2886
▁neighbour	-12.2887
‘	-12.2887
▁Afraid	-12.2887
▁Beckett	-12.2887
▁Cadillac	-12.2887
▁Calvin	-12.2887
▁Certificate	-12.2887
▁Channel	-12.2887
▁Credit	-12.2887
▁Meanwhile	-12.2887
▁Reggie	-12.2887
▁SHUT	-12.2887
▁accompany	-12.2887
▁activate	-12.2887
▁appliance	-12.2887
▁breeze	-12.2887
▁bruise	-12.2887
▁ceiling	-12.2887
▁centuries	-12.2887
▁compensation	-12.2887
▁defensive	-12.2887
▁disguise	-12.2887
▁equipped	-12.2887
▁flick	-12.2887
▁grief	-12.2887
▁headquarters	-12.2887
▁hockey	-12.2887
▁integrity	-12.2887
▁intimate	-12.2887
▁lawsuit	-12.2887
▁lieutenant	-12.2887
▁lobster	-12.2887
▁naughty	-12.2887
▁obsession	-12.2887
▁persuade	-12.2887
▁primitive	-12.2887
▁sensible	-12.2887
▁significant	-12.2887
▁spaghetti	-12.2887
▁survival	-12.2887
▁underneath	-12.2887
~	-12.2887
▁Madison	-12.2887
▁Ralph	-12.2887
▁Raoul	-12.2887
▁Several	-12.2887
▁Woman	-12.2887
▁Hilton	-12.2887
▁Magic	-12.2887
▁Mallory	-12.2887
▁parasite	-12.2887
▁dragged	-12.2887
▁dreadful	-12.2887
▁raising	-12.2887
▁cuff	-12.2887
▁creating	-12.2887
▁hesitate	-12.2887
▁mutant	-12.2887
▁excess	-12.2887
▁Stewart	-12.2887
chuan	-12.2887
▁smear	-12.2887
▁Terrible	-12.2888
▁merger	-12.2888
▁Kristen	-12.2888
▁automatically	-12.2888
▁password	-12.2888
▁NIGHT	-12.2888
▁gallon	-12.2888
▁Store	-12.2888
▁+	-12.2888
▁anchor	-12.2888
▁theories	-12.2889
▁chopper	-12.2889
▁bald	-12.2889
Take	-12.289
▁booze	-12.289
▁dislike	-12.289
▁skinny	-12.289
▁disappointment	-12.289
▁edition	-12.2891
▁hiring	-12.2891
▁confirmation	-12.2891
▁Yeh	-12.2894
▁Snow	-12.2896
98	-12.2901
▁backpack	-12.2902
▁Christine	-12.2906
▁Bang	-12.2907
▁spite	-12.2909
▁Auto	-12.2909
▁Stew	-12.2911
▁Woody	-12.2914
▁largest	-12.292
▁ego	-12.2922
▁medal	-12.2934
count	-12.2939
▁colleague	-12.295
▁ONE	-12.2952
vice	-12.2952
▁slam	-12.2952
▁Mak	-12.2984
▁epi	-12.3012
called	-12.3019
OK	-12.3044
▁von	-12.3046
attle	-12.305
never	-12.307
witz	-12.309
▁$1	-12.3105
▁aspirin	-12.3158
▁abandon	-12.3175
condition	-12.3185
twenty	-12.3185
89	-12.3186
write	-12.3189
▁inherit	-12.319
▁Academy	-12.319
▁Addison	-12.319
▁Atlantic	-12.319
▁Bastard	-12.319
▁Buckaroo	-12.319
▁Chairman	-12.319
▁Committee	-12.319
▁Communist	-12.319
▁Democrat	-12.319
▁Gibson	-12.319
▁Keaton	-12.319
▁Lecktor	-12.319
▁Maurice	-12.319
▁Oklahoma	-12.319
▁Summer	-12.319
▁Thanksgiving	-12.319
▁Thorwald	-12.319
▁anonymous	-12.319
▁cereal	-12.319
▁concentration	-12.319
▁contribute	-12.319
▁contribution	-12.319
▁coupla	-12.319
▁deliberately	-12.319
▁homosexual	-12.319
▁identifie	-12.319
▁ignorant	-12.319
▁jurisdiction	-12.319
▁legitimate	-12.319
▁prescribe	-12.319
▁qualify	-12.319
▁universities	-12.319
▁vulnerable	-12.319
▁welfare	-12.319
▁Crime	-12.319
▁Dudley	-12.319
▁Marvin	-12.319
▁arrival	-12.319
▁vacant	-12.319
▁Fourteen	-12.319
▁skating	-12.319
▁Winston	-12.319
▁soccer	-12.319
▁Dyle	-12.319
▁classmates	-12.319
▁psychology	-12.319
▁squid	-12.3191
▁scalp	-12.3191
▁leaf	-12.3191
▁referring	-12.3191
▁programmed	-12.3191
▁inspiration	-12.3191
▁NBA	-12.3191
▁restrain	-12.3191
▁eternal	-12.3191
▁notebook	-12.3192
▁kidnap	-12.3192
▁slug	-12.3192
▁circus	-12.3192
▁cancelled	-12.3192
▁sidewalk	-12.3192
▁Train	-12.3192
▁Trade	-12.3192
▁Orange	-12.3193
▁Kitty	-12.3193
▁sentimental	-12.3193
▁Jedi	-12.3193
▁Logan	-12.3193
▁Blade	-12.3193
▁eyeball	-12.3193
▁bucket	-12.3193
▁quest	-12.3196
▁subtle	-12.3197
▁Korean	-12.3197
▁raid	-12.3198
▁rack	-12.3198
▁china	-12.3203
▁adore	-12.3204
▁liter	-12.3204
▁Winter	-12.3209
dead	-12.3211
arrang	-12.3215
▁Mick	-12.3216
tomic	-12.3245
▁rage	-12.3248
▁update	-12.3277
▁250	-12.3338
▁faithful	-12.3345
▁blond	-12.3347
smith	-12.3364
▁Hook	-12.3369
▁48	-12.3395
cru	-12.342
pelled	-12.3452
▁lip	-12.3467
▁relieve	-12.3474
▁plea	-12.3476
▁advertise	-12.3498
Every	-12.3498
style	-12.3498
▁drivin	-12.3499
▁sittin	-12.3502
MMMM	-12.3503
▁dispatch	-12.3503
▁Between	-12.3503
▁Desmond	-12.3503
▁Frankenstein	-12.3503
▁Galvin	-12.3503
▁Intelligence	-12.3503
▁Liberty	-12.3503
▁Michelle	-12.3503
▁Restaurant	-12.3503
▁Selina	-12.3503
▁Snoop	-12.3503
▁arguing	-12.3503
▁autumn	-12.3503
▁discharge	-12.3503
▁discipline	-12.3503
▁discourage	-12.3503
▁facilities	-12.3503
▁luxury	-12.3503
▁misunderstood	-12.3503
▁perspective	-12.3503
▁pilgrim	-12.3503
▁ritual	-12.3503
▁shampoo	-12.3503
▁unnecessary	-12.3503
▁Plenty	-12.3503
▁Scotland	-12.3503
▁empire	-12.3503
▁promising	-12.3503
▁undress	-12.3503
▁Sloan	-12.3503
▁Sophie	-12.3503
▁Whadda	-12.3503
▁evolve	-12.3503
▁Hillyer	-12.3503
▁depth	-12.3503
▁orphan	-12.3503
▁ransom	-12.3503
▁Chamber	-12.3503
▁radar	-12.3503
▁vault	-12.3503
▁Sandra	-12.3503
▁inquiry	-12.3503
▁adapt	-12.3503
▁Cotton	-12.3503
▁stabbed	-12.3503
▁infant	-12.3503
▁Beast	-12.3503
▁convey	-12.3503
▁terminal	-12.3503
▁Bowl	-12.3503
▁dragging	-12.3503
▁meteor	-12.3503
▁Eleven	-12.3504
▁Annette	-12.3504
▁auction	-12.3504
▁occasionally	-12.3504
▁chopped	-12.3504
▁panties	-12.3504
▁McCa	-12.3505
▁cannon	-12.3505
Fuck	-12.3505
▁massive	-12.3505
▁remarkable	-12.3506
▁broom	-12.3506
▁Pony	-12.3507
▁waist	-12.3507
▁Magn	-12.3507
▁Horn	-12.3507
▁Grow	-12.3508
▁jaw	-12.3508
▁Gino	-12.3509
▁Hoover	-12.3509
▁colorful	-12.351
▁Scottie	-12.351
▁Someday	-12.3511
▁temple	-12.3511
▁intact	-12.3511
▁infected	-12.3512
▁digest	-12.3513
▁CAR	-12.3513
▁dragon	-12.3513
▁Order	-12.3517
▁African	-12.3518
▁Sera	-12.352
▁Gang	-12.3525
▁heroes	-12.3527
▁Maxie	-12.3529
MENT	-12.3558
▁fuse	-12.3562
90	-12.3563
▁Dodge	-12.358
▁govern	-12.3644
▁stag	-12.366
▁semi	-12.368
▁Oooh	-12.3744
gui	-12.378
▁crow	-12.3785
▁Living	-12.3805
▁circ	-12.3812
▁stud	-12.3814
▁edit	-12.3817
guard	-12.382
world	-12.382
Come	-12.382
blood	-12.382
school	-12.382
week	-12.3825
▁Beethoven	-12.3825
▁Behind	-12.3825
▁Bourne	-12.3825
▁Daphne	-12.3825
▁Kathryn	-12.3825
▁Kentucky	-12.3825
▁McKenna	-12.3825
▁Pentagon	-12.3825
▁Positive	-12.3825
▁Sweetheart	-12.3825
▁Vaughan	-12.3825
▁Vernon	-12.3825
▁administration	-12.3825
▁believing	-12.3825
▁bubble	-12.3825
▁colony	-12.3825
▁compensate	-12.3825
▁conclude	-12.3825
▁continent	-12.3825
▁cuisine	-12.3825
▁cycle	-12.3825
▁dammit	-12.3825
▁expedition	-12.3825
▁heavily	-12.3825
▁hyper	-12.3825
▁knives	-12.3825
▁peculiar	-12.3825
▁relevant	-12.3825
▁seldom	-12.3825
▁undercover	-12.3825
▁wardrobe	-12.3825
▁Kendall	-12.3825
▁Moraes	-12.3825
▁Oliver	-12.3825
▁choir	-12.3825
▁delusion	-12.3825
▁dummy	-12.3825
▁sphere	-12.3825
▁whatsoever	-12.3825
▁Ganz	-12.3825
▁Problem	-12.3825
▁Worse	-12.3825
▁breach	-12.3825
▁Claim	-12.3825
▁Collins	-12.3825
▁sniff	-12.3825
▁scandal	-12.3825
▁refill	-12.3825
▁sensation	-12.3825
▁Claus	-12.3825
▁Palmer	-12.3825
▁Least	-12.3825
▁analyz	-12.3825
▁Fettes	-12.3825
▁Morris	-12.3826
▁fraud	-12.3826
▁chaos	-12.3826
▁vital	-12.3826
▁Thailand	-12.3826
▁Kathy	-12.3826
▁Otto	-12.3826
▁Health	-12.3826
▁Ernie	-12.3826
▁waking	-12.3827
▁cramp	-12.3827
▁preach	-12.3827
▁Section	-12.3827
▁documentary	-12.3828
▁Chick	-12.3828
▁stressful	-12.3828
▁Planet	-12.3828
▁Hugh	-12.3828
▁Powell	-12.3829
▁Highness	-12.383
OTHER	-12.383
▁wax	-12.383
▁filing	-12.383
▁Creed	-12.383
▁Shang	-12.383
▁Jump	-12.3833
▁chatting	-12.3833
▁brace	-12.3836
▁oak	-12.3837
▁Bright	-12.3839
▁Julian	-12.3844
▁Taxi	-12.3849
▁deposition	-12.3864
▁disconnect	-12.3877
▁perk	-12.3878
▁bunk	-12.3902
▁Remind	-12.3904
nnn	-12.3907
88	-12.3984
lude	-12.3992
▁Emma	-12.4019
▁journal	-12.4045
▁Whew	-12.4049
▁Drug	-12.4061
86	-12.4115
▁ripe	-12.4119
▁180	-12.4119
▁Change	-12.4132
▁Corn	-12.4148
)	-12.4154
married	-12.4154
build	-12.4154
Hello	-12.4154
EAR	-12.4156
▁construct	-12.4157
▁Annabelle	-12.4159
▁Arizona	-12.4159
▁Blonde	-12.4159
▁Broadway	-12.4159
▁Civil	-12.4159
▁Excellency	-12.4159
▁Institute	-12.4159
▁Keith	-12.4159
▁MacFarlane	-12.4159
▁Romulan	-12.4159
▁STOP	-12.4159
▁Stephanie	-12.4159
▁Taransky	-12.4159
▁Terrance	-12.4159
▁Titanic	-12.4159
▁Venkman	-12.4159
▁brochure	-12.4159
▁burden	-12.4159
▁circulation	-12.4159
▁coconut	-12.4159
▁concrete	-12.4159
▁counterfeit	-12.4159
▁efficiency	-12.4159
▁enforcement	-12.4159
▁exercising	-12.4159
▁gracious	-12.4159
▁jogging	-12.4159
▁penalty	-12.4159
▁physician	-12.4159
▁psychologist	-12.4159
▁residence	-12.4159
▁subscription	-12.4159
▁sympathy	-12.4159
▁terrified	-12.4159
▁Eduard	-12.4159
▁Eugene	-12.4159
▁Hampshire	-12.4159
▁Harrington	-12.4159
▁Ocean	-12.4159
▁Patchett	-12.4159
▁Picard	-12.4159
▁companion	-12.4159
▁dismiss	-12.4159
▁gently	-12.4159
▁hysterical	-12.4159
▁Worf	-12.4159
▁combined	-12.4159
▁manifest	-12.4159
▁Children	-12.4159
▁Creek	-12.4159
▁forecast	-12.4159
▁friggin	-12.4159
▁sketch	-12.4159
▁stool	-12.4159
▁bundle	-12.4159
▁Push	-12.4159
▁Amanda	-12.4159
▁shining	-12.4159
▁condom	-12.4159
▁swap	-12.4159
▁vicious	-12.4159
▁intellectual	-12.4159
▁trend	-12.4159
▁smack	-12.4159
▁payroll	-12.4159
▁tramp	-12.4159
▁denied	-12.4159
▁carrier	-12.4159
▁grey	-12.4159
▁riddle	-12.4159
▁humble	-12.416
▁vague	-12.416
▁Airport	-12.416
▁Denver	-12.416
▁ensure	-12.416
▁fetch	-12.416
▁communist	-12.416
▁spiritual	-12.4161
▁Zack	-12.4161
▁Austrian	-12.4161
▁diary	-12.4162
OLD	-12.4163
▁echo	-12.4163
▁handbag	-12.4163
▁ounce	-12.4163
▁skate	-12.4163
▁Mantan	-12.4163
▁Crash	-12.4163
▁tolerate	-12.4165
▁breakdown	-12.4166
▁THEY	-12.4166
▁greedy	-12.4166
▁papa	-12.4168
▁distraction	-12.4168
▁flaw	-12.4169
▁Allison	-12.417
▁conductor	-12.417
▁elsewhere	-12.4171
▁classroom	-12.4171
▁Saving	-12.4173
▁freezer	-12.4183
▁varie	-12.4208
zza	-12.4225
▁Prof	-12.4233
cast	-12.4277
base	-12.4381
keep	-12.4475
word	-12.4488
▁Aaa	-12.4489
quali	-12.449
▁forbid	-12.449
conscious	-12.4497
which	-12.4499
draft	-12.4499
▁Cowboy	-12.4503
▁Dawson	-12.4503
▁EXT	-12.4503
▁Jacques	-12.4503
▁LIKE	-12.4503
▁Micheal	-12.4503
▁Minnesota	-12.4503
▁Travis	-12.4503
▁Vancouver	-12.4503
▁Wheeler	-12.4503
▁disgrace	-12.4503
▁garlic	-12.4503
▁immortal	-12.4503
▁implant	-12.4503
▁lantern	-12.4503
▁patriot	-12.4503
▁rehearsal	-12.4503
▁splendid	-12.4503
▁virtual	-12.4503
▁Bailey	-12.4503
▁academic	-12.4503
▁dignity	-12.4503
▁tragic	-12.4503
▁Mafia	-12.4503
▁filter	-12.4503
▁glue	-12.4503
▁Argon	-12.4503
▁diving	-12.4503
▁frog	-12.4503
▁patron	-12.4503
▁Eastern	-12.4503
▁Norville	-12.4503
▁Thousand	-12.4503
▁enroll	-12.4503
▁southern	-12.4503
▁demonstration	-12.4503
▁defect	-12.4504
▁therapist	-12.4504
▁conservative	-12.4504
▁7:30	-12.4504
▁cartoon	-12.4504
▁BACK	-12.4504
▁forehead	-12.4504
▁noodles	-12.4504
▁Bingo	-12.4504
▁Shoe	-12.4504
▁kidnapping	-12.4504
▁Lilly	-12.4504
▁railway	-12.4504
▁Monkey	-12.4504
▁amusing	-12.4504
▁Vader	-12.4504
lift	-12.4505
▁rational	-12.4505
▁choke	-12.4505
▁Running	-12.4505
▁Connie	-12.4506
▁sunset	-12.4506
▁Shark	-12.4506
▁porno	-12.4507
▁healed	-12.4508
▁Lamb	-12.4508
▁limp	-12.4508
▁Cecile	-12.4508
▁airmail	-12.4509
member	-12.4509
▁debit	-12.4509
▁lemon	-12.4509
▁10,000	-12.451
▁preference	-12.4511
▁petty	-12.4511
▁olive	-12.4511
▁Doris	-12.4511
▁Mayfield	-12.4512
▁Colon	-12.4512
▁branches	-12.4513
▁Benny	-12.4515
▁Williamson	-12.4515
▁Domini	-12.4517
▁Kick	-12.4518
▁rail	-12.4525
▁dash	-12.4527
IND	-12.4551
▁weep	-12.4564
placing	-12.4594
▁Safe	-12.4608
migration	-12.4611
▁psych	-12.4644
corn	-12.465
after	-12.4713
▁29	-12.474
▁blog	-12.4754
▁Direct	-12.4836
master	-12.4837
crack	-12.4856
speak	-12.4856
normal	-12.4857
eclaration	-12.4861
▁Bishop	-12.4861
▁Cuervo	-12.4861
▁Gloria	-12.4861
▁Hundred	-12.4861
▁Including	-12.4861
▁Journal	-12.4861
▁Koessler	-12.4861
▁Management	-12.4861
▁Manchester	-12.4861
▁Natalie	-12.4861
▁Society	-12.4861
▁Sydney	-12.4861
▁bartender	-12.4861
▁bathtub	-12.4861
▁buffet	-12.4861
▁compartment	-12.4861
▁competitor	-12.4861
▁complication	-12.4861
▁cosmetic	-12.4861
▁dynamite	-12.4861
▁experiencing	-12.4861
▁fountain	-12.4861
▁gasoline	-12.4861
▁grenade	-12.4861
▁nanobot	-12.4861
▁resolve	-12.4861
▁satisfactory	-12.4861
▁sausage	-12.4861
▁strangle	-12.4861
▁thieves	-12.4861
▁Channing	-12.4861
▁Goddammit	-12.4861
▁Jeremy	-12.4861
▁Swana	-12.4861
▁harvest	-12.4861
▁Castro	-12.4861
▁delightful	-12.4861
▁protein	-12.4861
▁Becker	-12.4861
▁monument	-12.4861
▁Elena	-12.4861
▁puff	-12.4861
▁margin	-12.4861
▁pawn	-12.4861
▁dispute	-12.4861
▁earrings	-12.4861
▁swine	-12.4861
▁spoon	-12.4861
▁Derek	-12.4861
▁alibi	-12.4861
▁Cedar	-12.4861
▁Canyon	-12.4861
▁Farmer	-12.4861
▁introduction	-12.4861
▁porn	-12.4861
▁ginger	-12.4861
▁Ginger	-12.4861
▁Southern	-12.4861
▁brew	-12.4862
▁lens	-12.4862
▁flop	-12.4862
▁Meyer	-12.4862
▁decade	-12.4863
▁permitted	-12.4863
WAY	-12.4863
▁Protect	-12.4863
▁glow	-12.4864
▁Peking	-12.4864
▁Monster	-12.4864
▁Lowell	-12.4864
▁realtor	-12.4864
▁Mount	-12.4864
▁Tiger	-12.4865
▁VIS	-12.4865
Day	-12.4865
▁LET	-12.4865
▁unload	-12.4865
▁wholesale	-12.4865
▁diner	-12.4866
▁announcement	-12.4866
▁wireless	-12.4867
▁bushes	-12.4868
▁vibe	-12.4868
▁footage	-12.4868
▁Conway	-12.4869
▁judgement	-12.487
▁vest	-12.4874
color	-12.488
matter	-12.4896
▁slit	-12.4925
▁Cris	-12.5048
icious	-12.507
paid	-12.5083
cession	-12.5184
▁Alabama	-12.5231
▁Atlanta	-12.5231
▁Eagle	-12.5231
▁Rothstein	-12.5231
▁collapse	-12.5231
▁fantasies	-12.5231
▁figuring	-12.5231
▁horizon	-12.5231
▁initiative	-12.5231
▁morphine	-12.5231
▁penguin	-12.5231
▁perimeter	-12.5231
▁precaution	-12.5231
▁prostitute	-12.5231
▁resolution	-12.5231
▁sculpture	-12.5231
▁tissue	-12.5231
▁tuition	-12.5231
▁unpleasant	-12.5231
▁wheelchair	-12.5231
▁Crystal	-12.5231
▁Darryl	-12.5231
▁Enzo	-12.5231
▁Foster	-12.5231
▁Furtwngler	-12.5231
▁Mookie	-12.5231
▁Schuyler	-12.5231
▁Wigand	-12.5231
▁beloved	-12.5231
▁compassion	-12.5231
▁demonstrate	-12.5231
▁guinea	-12.5231
▁reconsider	-12.5231
▁strand	-12.5231
▁yield	-12.5231
▁Czech	-12.5231
▁LOVE	-12.5231
▁banquet	-12.5231
▁blur	-12.5231
▁depriv	-12.5231
▁harsh	-12.5231
▁jeep	-12.5231
▁orchestra	-12.5231
▁snoop	-12.5231
▁Alaska	-12.5231
▁CEO	-12.5231
▁errand	-12.5231
▁Guang	-12.5231
▁Worth	-12.5231
▁omelet	-12.5231
▁Sarge	-12.5231
▁extinct	-12.5231
▁scope	-12.5231
▁crisp	-12.5231
▁Alpha	-12.5231
▁automobile	-12.5231
▁Harvey	-12.5231
▁Uhura	-12.5231
▁Front	-12.5231
▁mushroom	-12.5231
▁drew	-12.5231
▁Domino	-12.5231
▁Potter	-12.5231
▁reform	-12.5231
▁textbook	-12.5231
▁tidy	-12.5231
▁lottery	-12.5231
▁toothache	-12.5231
▁toxic	-12.5232
▁Cameron	-12.5232
▁insured	-12.5232
▁Hector	-12.5232
▁translate	-12.5232
▁competent	-12.5232
▁Quaid	-12.5232
▁Barney	-12.5233
▁expertise	-12.5233
▁fiend	-12.5233
▁nuthin	-12.5233
▁assets	-12.5233
▁Thai	-12.5233
▁shack	-12.5233
▁crane	-12.5233
▁Anywhere	-12.5234
▁defendant	-12.5234
▁geek	-12.5234
▁alcoholic	-12.5235
▁liking	-12.5235
▁assassination	-12.5236
▁5,000	-12.5236
▁loot	-12.5236
▁traitor	-12.5237
▁Fink	-12.5237
▁controlled	-12.5237
▁Raise	-12.5238
▁Nix	-12.5238
▁psychotic	-12.524
▁conviction	-12.5242
▁consumer	-12.5245
▁Jade	-12.5246
ovic	-12.5265
front	-12.5275
sexual	-12.528
▁Terri	-12.5296
▁Chase	-12.5329
▁dye	-12.537
▁magn	-12.5391
▁Disco	-12.5553
▁engage	-12.5585
▁accuse	-12.5587
▁disgust	-12.5594
▁lib	-12.5598
certain	-12.5611
special	-12.5611
dollar	-12.5611
believe	-12.5611
anything	-12.5611
million	-12.5612
something	-12.5612
▁Somethin	-12.5612
▁dyin	-12.5613
through	-12.5615
OULD	-12.5616
troverted	-12.5616
▁Ambrose	-12.5616
▁Audrey	-12.5616
▁Chewie	-12.5616
▁Creator	-12.5616
▁Defense	-12.5616
▁Grunemann	-12.5616
▁Haldeman	-12.5616
▁Kirsty	-12.5616
▁Possibly	-12.5616
▁Ronald	-12.5616
▁Stanwyk	-12.5616
▁Unbelievable	-12.5616
▁Vinci	-12.5616
▁WHERE	-12.5616
▁abilities	-12.5616
▁acquaintance	-12.5616
▁acquire	-12.5616
▁appreciation	-12.5616
▁bankrupt	-12.5616
▁caviar	-12.5616
▁celebrity	-12.5616
▁choosing	-12.5616
▁crucial	-12.5616
▁despise	-12.5616
▁dimension	-12.5616
▁disposal	-12.5616
▁divine	-12.5616
▁energetic	-12.5616
▁guidance	-12.5616
▁impatient	-12.5616
▁lizard	-12.5616
▁malfunction	-12.5616
▁martini	-12.5616
▁mascara	-12.5616
▁mathematics	-12.5616
▁offensive	-12.5616
▁prettier	-12.5616
▁psychiatric	-12.5616
▁savage	-12.5616
▁scenario	-12.5616
▁worthwhile	-12.5616
▁Complete	-12.5616
▁praise	-12.5616
▁Chancellor	-12.5616
▁cherry	-12.5616
▁conceal	-12.5616
▁injury	-12.5616
▁penetrate	-12.5616
▁premium	-12.5616
▁fierce	-12.5616
▁saloon	-12.5616
▁tutor	-12.5616
▁Reilly	-12.5616
▁Mollie	-12.5616
▁Hollis	-12.5616
▁Fresh	-12.5616
▁Helms	-12.5616
▁protest	-12.5616
▁Aaron	-12.5616
▁Fool	-12.5616
▁prompt	-12.5616
▁creation	-12.5616
▁Cosmo	-12.5616
▁EVER	-12.5616
▁journalism	-12.5616
▁Mueller	-12.5616
▁Turkey	-12.5616
▁apologies	-12.5616
▁10:00	-12.5616
▁Jonah	-12.5617
TION	-12.5617
▁freight	-12.5617
▁Bunny	-12.5617
▁Clayton	-12.5617
▁leadership	-12.5618
▁chunk	-12.5618
▁bacon	-12.5618
▁Ugh	-12.5619
▁Rather	-12.5619
▁Becky	-12.5619
▁cupboard	-12.5619
▁inquire	-12.5619
level	-12.562
▁Eddy	-12.5621
ROM	-12.5622
▁Bitch	-12.5622
▁Laval	-12.5623
mittance	-12.5721
▁Cult	-12.5774
▁peek	-12.5784
Tracker	-12.5837
▁provid	-12.5856
▁crumb	-12.5861
▁Classic	-12.5867
▁confuse	-12.5987
▁preserve	-12.5987
▁greed	-12.6008
control	-12.6011
hearted	-12.6012
▁leavin	-12.6012
▁lyin	-12.6013
▁Engine	-12.6016
▁Beauty	-12.6016
▁Bravo	-12.6016
▁Chimera	-12.6016
▁Cleveland	-12.6016
▁Connecticut	-12.6016
▁Customs	-12.6016
▁Dwight	-12.6016
▁Emergency	-12.6016
▁Kraut	-12.6016
▁Madeleine	-12.6016
▁Marcia	-12.6016
▁Ministry	-12.6016
▁Pittsburgh	-12.6016
▁Pritchett	-12.6016
▁Program	-12.6016
▁SHIT	-12.6016
▁Smoking	-12.6016
▁Spirit	-12.6016
▁Understood	-12.6016
▁accelera	-12.6016
▁autopsy	-12.6016
▁certified	-12.6016
▁confusion	-12.6016
▁duplicate	-12.6016
▁exposure	-12.6016
▁fragile	-12.6016
▁frustrated	-12.6016
▁hazard	-12.6016
▁leisure	-12.6016
▁microwave	-12.6016
▁observation	-12.6016
▁radiator	-12.6016
▁receiving	-12.6016
▁sabotage	-12.6016
▁substantial	-12.6016
▁sustain	-12.6016
▁technician	-12.6016
▁toothbrush	-12.6016
▁typewriter	-12.6016
▁Gekko	-12.6016
▁Ghost	-12.6016
▁Republican	-12.6016
▁Spencer	-12.6016
▁abstract	-12.6016
▁alphabet	-12.6016
▁convincing	-12.6016
▁exotic	-12.6016
▁fundamental	-12.6016
▁heartbeat	-12.6016
▁invasion	-12.6016
▁Edmund	-12.6016
▁Elvin	-12.6016
▁Engineering	-12.6016
▁Swiss	-12.6016
▁overweight	-12.6016
▁scotch	-12.6016
▁sleaz	-12.6016
▁stroll	-12.6016
▁Kastle	-12.6016
▁Maude	-12.6016
▁Strong	-12.6016
▁stubborn	-12.6016
▁vomit	-12.6016
hantom	-12.6016
▁resort	-12.6016
▁Conrad	-12.6016
▁cuz	-12.6016
▁slob	-12.6016
▁terminate	-12.6016
▁9:00	-12.6016
▁terra	-12.6016
▁consent	-12.6016
▁retain	-12.6016
▁Erik	-12.6016
▁Oops	-12.6016
▁civilized	-12.6016
▁plumber	-12.6017
▁Mummy	-12.6017
▁Suspect	-12.6017
▁Swede	-12.6017
▁911	-12.6017
▁Joanne	-12.6017
▁glance	-12.6017
▁Magua	-12.6018
▁Middle	-12.6018
▁Series	-12.6019
direct	-12.602
▁Enid	-12.602
▁Prison	-12.602
▁attendance	-12.602
help	-12.6022
▁rattle	-12.6022
▁raft	-12.6023
▁insert	-12.6032
▁mush	-12.6038
would	-12.6057
ddling	-12.6143
ounce	-12.6148
ENT	-12.6258
hhhhhh	-12.6404
▁filth	-12.6423
▁prince	-12.6427
mobile	-12.6427
together	-12.6427
brother	-12.6427
screen	-12.6427
worm	-12.6428
▁Beavis	-12.6432
▁Campbell	-12.6432
▁Cosgrove	-12.6432
▁HARRY	-12.6432
▁Hamilton	-12.6432
▁Incredible	-12.6432
▁Jazz	-12.6432
▁Kaufman	-12.6432
▁LOOK	-12.6432
▁Maureen	-12.6432
▁Nervous	-12.6432
▁Nicholas	-12.6432
▁Pilgrim	-12.6432
▁Pleasure	-12.6432
▁Precisely	-12.6432
▁Research	-12.6432
▁Schulz	-12.6432
▁Steady	-12.6432
▁WANT	-12.6432
▁Zealand	-12.6432
▁absorb	-12.6432
▁bizarre	-12.6432
▁caffeine	-12.6432
▁cheeseburger	-12.6432
▁drapes	-12.6432
▁elaborate	-12.6432
▁evaluation	-12.6432
▁fascinate	-12.6432
▁flour	-12.6432
▁frustrating	-12.6432
▁glorious	-12.6432
▁hairdresser	-12.6432
▁ignorance	-12.6432
▁lounge	-12.6432
▁maneuver	-12.6432
▁nursing	-12.6432
▁pregnancy	-12.6432
▁prejudice	-12.6432
▁rhythm	-12.6432
▁smuggle	-12.6432
▁snuff	-12.6432
▁strawberry	-12.6432
▁subpoena	-12.6432
▁superhero	-12.6432
▁throne	-12.6432
▁vodka	-12.6432
▁Castor	-12.6432
▁McDonald	-12.6432
▁Nigel	-12.6432
▁deceased	-12.6432
▁disrespect	-12.6432
▁pupil	-12.6432
▁Lynn	-12.6432
▁muffin	-12.6432
▁Brenda	-12.6432
▁Repeat	-12.6432
▁grease	-12.6432
▁hollow	-12.6432
▁Valiant	-12.6432
▁conquer	-12.6432
▁Normally	-12.6432
▁spear	-12.6432
▁cease	-12.6432
▁Operator	-12.6432
▁grid	-12.6432
▁slick	-12.6432
▁Betsy	-12.6432
▁indication	-12.6432
▁memorize	-12.6432
▁6:30	-12.6432
▁dental	-12.6432
▁laboratory	-12.6432
▁stitch	-12.6432
IST	-12.6433
▁organizing	-12.6433
▁holler	-12.6433
▁mourn	-12.6433
▁organism	-12.6433
▁stack	-12.6433
▁Eighteen	-12.6433
▁database	-12.6433
olecular	-12.6434
▁farewell	-12.6434
▁eyelash	-12.6434
▁scrub	-12.6434
▁Brody	-12.6435
▁Jorge	-12.6435
▁Sunny	-12.6435
▁crab	-12.6435
▁Margie	-12.6435
▁Huey	-12.6437
▁tension	-12.6437
▁establishment	-12.6438
▁endure	-12.6448
▁generate	-12.645
▁invok	-12.6459
▁cheerful	-12.6464
▁latte	-12.6583
generat	-12.6769
▁axe	-12.6795
▁Nolan	-12.6796
▁accord	-12.6846
President	-12.6862
could	-12.6862
virus	-12.6862
gression	-12.6863
▁Already	-12.6867
▁Assistant	-12.6867
▁Berkeley	-12.6867
▁Bonaparte	-12.6867
▁Brenner	-12.6867
▁Citizen	-12.6867
▁Conklin	-12.6867
▁DVD	-12.6867
▁Destroy	-12.6867
▁KISS	-12.6867
▁Mississippi	-12.6867
▁Neighbor	-12.6867
▁Principal	-12.6867
▁Rhode	-12.6867
▁Simpson	-12.6867
▁Supreme	-12.6867
▁Switzerland	-12.6867
▁Together	-12.6867
▁Upstairs	-12.6867
▁Whaddya	-12.6867
▁acquainted	-12.6867
▁aluminum	-12.6867
▁ambitious	-12.6867
▁bounty	-12.6867
▁butterfly	-12.6867
▁calculation	-12.6867
▁cautious	-12.6867
▁chrissake	-12.6867
▁clarify	-12.6867
▁comparison	-12.6867
▁confiscate	-12.6867
▁congratulate	-12.6867
▁curfew	-12.6867
▁decency	-12.6867
▁distinguish	-12.6867
▁ethics	-12.6867
▁evolution	-12.6867
▁exquisite	-12.6867
▁fossil	-12.6867
▁galaxy	-12.6867
▁gallery	-12.6867
▁glimpse	-12.6867
▁groceries	-12.6867
▁grudge	-12.6867
▁inevitable	-12.6867
▁irresponsible	-12.6867
▁liberty	-12.6867
▁lonesome	-12.6867
▁majesty	-12.6867
▁nickname	-12.6867
▁nostril	-12.6867
▁squirrel	-12.6867
▁struggling	-12.6867
▁subscribe	-12.6867
▁Bateman	-12.6867
▁Jefferson	-12.6867
▁Massey	-12.6867
▁Nineteen	-12.6867
▁anticipate	-12.6867
▁barrack	-12.6867
▁deceive	-12.6867
▁decline	-12.6867
▁increasing	-12.6867
▁outrageous	-12.6867
▁discreet	-12.6867
▁turtle	-12.6867
▁CBS	-12.6867
▁coroner	-12.6867
▁unstable	-12.6867
▁Sheldon	-12.6867
▁Student	-12.6867
▁snatch	-12.6867
▁Hindu	-12.6867
▁Sandro	-12.6867
▁obey	-12.6867
▁slippers	-12.6867
▁redeem	-12.6867
▁dried	-12.6867
▁Torrance	-12.6867
▁Watergate	-12.6867
▁boast	-12.6867
▁Acme	-12.6867
▁2:30	-12.6867
▁Flower	-12.6868
▁masterpiece	-12.6868
▁persist	-12.6868
▁6.7	-12.6868
▁7:00	-12.6868
▁spacecraft	-12.6868
▁stray	-12.6868
▁Janice	-12.6868
▁figger	-12.6868
▁IBM	-12.6868
▁Merlin	-12.6869
▁tempted	-12.6869
▁Cherry	-12.6869
▁canyon	-12.687
▁Rough	-12.687
hinese	-12.6898
▁elect	-12.6901
stration	-12.6917
ainbow	-12.6933
▁Track	-12.7067
2,000	-12.7256
▁consume	-12.7304
Smith	-12.7317
little	-12.7317
third	-12.7317
▁surge	-12.7317
guy	-12.7319
▁Swedish	-12.7322
–	-12.7322
▁Administration	-12.7322
▁Brilliant	-12.7322
▁Cigarette	-12.7322
▁Communication	-12.7322
▁Costello	-12.7322
▁Einstein	-12.7322
▁Elijah	-12.7322
▁Lynette	-12.7322
▁Lyssa	-12.7322
▁MONEY	-12.7322
▁Mademoiselle	-12.7322
▁Montgomery	-12.7322
▁Sparazza	-12.7322
▁Splendid	-12.7322
▁Towler	-12.7322
▁Trouble	-12.7322
▁Zuzu	-12.7322
▁anxiety	-12.7322
▁athletic	-12.7322
▁authentic	-12.7322
▁category	-12.7322
▁cavity	-12.7322
▁condemn	-12.7322
▁disadvantage	-12.7322
▁disrupt	-12.7322
▁grandchildren	-12.7322
▁grift	-12.7322
▁happiest	-12.7322
▁hurricane	-12.7322
▁hydro	-12.7322
▁identical	-12.7322
▁interrogation	-12.7322
▁intimidate	-12.7322
▁ketchup	-12.7322
▁lingerie	-12.7322
▁mainframe	-12.7322
▁negotiating	-12.7322
▁pamphlet	-12.7322
▁paranoia	-12.7322
▁participate	-12.7322
▁psychopath	-12.7322
▁rapidly	-12.7322
▁recognition	-12.7322
▁slippery	-12.7322
▁stumble	-12.7322
▁swollen	-12.7322
▁verify	-12.7322
Enquirer	-12.7322
▁Agreed	-12.7322
▁Capital	-12.7322
▁Ferrie	-12.7322
▁Hammer	-12.7322
▁drool	-12.7322
▁earliest	-12.7322
▁postpone	-12.7322
▁Lestat	-12.7322
▁Technical	-12.7322
▁reckless	-12.7322
▁endanger	-12.7322
▁Gerald	-12.7322
▁Duchess	-12.7322
▁Damone	-12.7322
▁Gross	-12.7322
▁Patrol	-12.7322
▁implying	-12.7322
▁patent	-12.7322
▁crude	-12.7322
▁distant	-12.7322
▁Ringo	-12.7322
▁industrial	-12.7322
▁Gaston	-12.7322
▁Oui	-12.7322
▁Silly	-12.7322
▁Pizza	-12.7322
▁detach	-12.7322
▁neural	-12.7322
▁graveyard	-12.7322
▁Quince	-12.7322
▁mailbox	-12.7322
▁HEAR	-12.7322
▁blink	-12.7322
▁notify	-12.7323
▁Strike	-12.7323
▁gravy	-12.7323
▁Operation	-12.7323
▁Grey	-12.7323
▁bunny	-12.7324
avier	-12.7324
▁robot	-12.7325
▁griev	-12.7325
enchant	-12.7327
▁Hicks	-12.7327
▁grasp	-12.7338
▁criticize	-12.7365
▁charg	-12.7718
▁recycl	-12.7742
▁bounc	-12.7757
avern	-12.7762
▁whiz	-12.7771
▁apolog	-12.7782
everything	-12.7793
from	-12.7793
folk	-12.7794
▁movin	-12.7795
clusive	-12.7797
▁catalog	-12.7797
▁Euro	-12.7798
▁refuge	-12.7798
▁Accident	-12.7798
▁Barnett	-12.7798
▁Bianca	-12.7798
▁Bijou	-12.7798
▁Cornelius	-12.7798
▁Counselor	-12.7798
▁Dixie	-12.7798
▁Dmitri	-12.7798
▁Duncan	-12.7798
▁Executive	-12.7798
▁Fruit	-12.7798
▁Greenleaf	-12.7798
▁Hopkins	-12.7798
▁Loomis	-12.7798
▁Melvin	-12.7798
▁Michigan	-12.7798
▁Narcissus	-12.7798
▁PEOPLE	-12.7798
▁Penelope	-12.7798
▁Reservation	-12.7798
▁Rexroth	-12.7798
▁Sefton	-12.7798
▁Suddenly	-12.7798
▁Sullivan	-12.7798
▁Taipei	-12.7798
▁Treadstone	-12.7798
▁WHY	-12.7798
▁Wichita	-12.7798
▁Wilhelm	-12.7798
▁accusation	-12.7798
▁ancestors	-12.7798
▁arrogant	-12.7798
▁asylum	-12.7798
▁blossom	-12.7798
▁blunt	-12.7798
▁bourbon	-12.7798
▁butterflies	-12.7798
▁caliber	-12.7798
▁communicating	-12.7798
▁comrade	-12.7798
▁cynical	-12.7798
▁definition	-12.7798
▁embrace	-12.7798
▁encouraging	-12.7798
▁exaggerate	-12.7798
▁generator	-12.7798
▁hallucination	-12.7798
▁imagining	-12.7798
▁maturity	-12.7798
▁messenger	-12.7798
▁moisturize	-12.7798
▁numero	-12.7798
▁pronounce	-12.7798
▁proposing	-12.7798
▁prototype	-12.7798
▁reinforce	-12.7798
▁rhyme	-12.7798
▁spectacular	-12.7798
▁substitute	-12.7798
▁unpredictable	-12.7798
▁Colleen	-12.7798
▁Crazy	-12.7798
▁Happen	-12.7798
▁Killaine	-12.7798
▁Seventeen	-12.7798
▁discretion	-12.7798
▁emperor	-12.7798
▁enlighten	-12.7798
▁exorcis	-12.7798
▁harmony	-12.7798
▁portrait	-12.7798
▁shatter	-12.7798
aternity	-12.7798
▁quiz	-12.7798
▁panicked	-12.7798
▁steep	-12.7798
▁Bundy	-12.7798
▁imitate	-12.7798
▁cozy	-12.7798
▁Lillian	-12.7798
▁Married	-12.7798
▁courtesy	-12.7798
▁Delmar	-12.7798
Amour	-12.7798
▁barrier	-12.7798
▁Everett	-12.7798
▁motto	-12.7798
▁Sherman	-12.7798
▁Otho	-12.7798
▁Moore	-12.7798
▁Cancer	-12.7799
▁lodge	-12.7799
▁Hurt	-12.78
▁Bates	-12.78
hello	-12.7801
▁Falco	-12.7804
tarian	-12.7814
referred	-12.8019
magnet	-12.809
▁Admit	-12.8205
▁Accord	-12.8277
▁Goddam	-12.828
▁exhaust	-12.8282
▁infect	-12.8283
▁trait	-12.8289
▁Cecil	-12.8291
▁precise	-12.8291
▁communi	-12.8294
spiring	-12.8295
▁intellect	-12.8297
dustries	-12.8298
▁Association	-12.8298
▁Bastaldi	-12.8298
▁Bertrand	-12.8298
▁Bontecou	-12.8298
▁Breakfast	-12.8298
▁ELLEN	-12.8298
▁Eventually	-12.8298
▁Fazeli	-12.8298
▁Ferrari	-12.8298
▁GOOD	-12.8298
▁Grendel	-12.8298
▁Homicide	-12.8298
▁Horizon	-12.8298
▁Imperial	-12.8298
▁Jerome	-12.8298
▁Jonathan	-12.8298
▁Katharine	-12.8298
▁Keyser	-12.8298
▁Krypton	-12.8298
▁Lechter	-12.8298
▁Metropoli	-12.8298
▁Pamela	-12.8298
▁Pasadena	-12.8298
▁Pennsylvania	-12.8298
▁Phyllis	-12.8298
▁Roderick	-12.8298
▁Sanchez	-12.8298
▁Schmidt	-12.8298
▁Wendell	-12.8298
▁Whistler	-12.8298
▁Wisconsin	-12.8298
▁Zavitz	-12.8298
▁advisor	-12.8298
▁anesthetic	-12.8298
▁celebrating	-12.8298
▁clutch	-12.8298
▁colonel	-12.8298
▁council	-12.8298
▁crummy	-12.8298
▁dishonest	-12.8298
▁eternity	-12.8298
▁geography	-12.8298
▁handwriting	-12.8298
▁innocence	-12.8298
▁judging	-12.8298
▁lesbian	-12.8298
▁limousine	-12.8298
▁neglect	-12.8298
▁nuisance	-12.8298
▁optimistic	-12.8298
▁paradise	-12.8298
▁producing	-12.8298
▁reconfirm	-12.8298
▁rendezvous	-12.8298
▁stadium	-12.8298
▁strung	-12.8298
▁substance	-12.8298
▁supernatural	-12.8298
▁tobacco	-12.8298
▁triumph	-12.8298
▁understudy	-12.8298
▁vacancy	-12.8298
▁wrinkle	-12.8298
▁Fleet	-12.8298
▁Reliant	-12.8298
▁Smythe	-12.8298
▁Split	-12.8298
▁Swear	-12.8298
▁ambush	-12.8298
▁assurance	-12.8298
▁chopsticks	-12.8298
▁essence	-12.8298
▁infinite	-12.8298
▁injuries	-12.8298
▁trooper	-12.8298
▁Carolyn	-12.8298
▁Comanche	-12.8298
▁Question	-12.8298
▁Sixteen	-12.8298
▁Talby	-12.8298
▁Tucker	-12.8298
▁replica	-12.8298
▁Donovan	-12.8298
▁HIS	-12.8298
▁kitten	-12.8298
▁shaft	-12.8298
▁snitch	-12.8298
▁Sense	-12.8298
▁Glass	-12.8298
▁Zulu	-12.8298
▁goddammit	-12.8298
▁mysteries	-12.8298
▁Heavy	-12.8298
▁11:30	-12.8298
▁Plato	-12.8298
▁Curtis	-12.8298
▁graphic	-12.8298
▁browse	-12.8298
▁Meeks	-12.8298
▁temptation	-12.8298
▁magnetic	-12.8298
▁Smile	-12.8298
▁goofy	-12.8298
▁quotation	-12.8298
▁litter	-12.8298
▁beverage	-12.8298
▁Charge	-12.8298
▁Mimi	-12.8298
▁Ilsa	-12.8298
Dracula	-12.8298
▁Hawkins	-12.8298
▁comedian	-12.8299
▁wimp	-12.8299
▁Lotte	-12.8299
▁cue	-12.8303
▁Grove	-12.8303
▁Dumb	-12.8321
ortex	-12.8354
▁erect	-12.8655
▁involv	-12.8741
▁numb	-12.8813
▁envi	-12.8816
husband	-12.8819
Frank	-12.8819
fried	-12.8819
Joe	-12.882
▁sentiment	-12.882
▁schizo	-12.8824
illennium	-12.8824
tologist	-12.8824
▁Advance	-12.8824
▁Affirmative	-12.8824
▁Cambridge	-12.8824
▁Cantonese	-12.8824
▁Colombia	-12.8824
▁Darrell	-12.8824
▁February	-12.8824
▁Football	-12.8824
▁Georgia	-12.8824
▁Georgie	-12.8824
▁Gideon	-12.8824
▁Goebbels	-12.8824
▁Hudsucker	-12.8824
▁Jaeger	-12.8824
▁Jeremiah	-12.8824
▁Leslie	-12.8824
▁Mackelway	-12.8824
▁Minutes	-12.8824
▁NEED	-12.8824
▁Paradise	-12.8824
▁Pendergast	-12.8824
▁Practice	-12.8824
▁Quarter	-12.8824
▁Sicily	-12.8824
▁Swayzak	-12.8824
▁Treasury	-12.8824
▁analyst	-12.8824
▁assembly	-12.8824
▁association	-12.8824
▁blush	-12.8824
▁burial	-12.8824
▁cappuccino	-12.8824
▁caution	-12.8824
▁credentials	-12.8824
▁defence	-12.8824
▁dissolve	-12.8824
▁easiest	-12.8824
▁eliminate	-12.8824
▁enhance	-12.8824
▁exaggerating	-12.8824
▁hilarious	-12.8824
▁humiliating	-12.8824
▁imbecile	-12.8824
▁marijuana	-12.8824
▁moustache	-12.8824
▁opponent	-12.8824
▁pajamas	-12.8824
▁pharmacy	-12.8824
▁protocol	-12.8824
▁revenue	-12.8824
▁salvage	-12.8824
▁schmuck	-12.8824
▁stockholders	-12.8824
▁windshield	-12.8824
▁wretched	-12.8824
▁EDD	-12.8824
▁Gulf	-12.8824
▁Jessie	-12.8824
▁Nyah	-12.8824
▁Polish	-12.8824
▁Ratched	-12.8824
▁courier	-12.8824
▁essay	-12.8824
▁vanished	-12.8824
▁wilderness	-12.8824
▁Ridge	-12.8824
▁Tuttle	-12.8824
▁french	-12.8824
▁SEC	-12.8824
▁Village	-12.8824
▁martial	-12.8824
▁trifle	-12.8824
▁Arnie	-12.8824
▁characteristics	-12.8824
▁enlarge	-12.8824
▁Archie	-12.8824
▁commend	-12.8824
▁garment	-12.8824
commerce	-12.8824
▁Sooze	-12.8824
▁mangoes	-12.8824
▁shiny	-12.8824
▁architecture	-12.8824
▁nominated	-12.8824
▁Speed	-12.8824
▁feast	-12.8824
▁Dawn	-12.8824
▁abduct	-12.8824
▁lemonade	-12.8824
▁Siberia	-12.8824
▁fireworks	-12.8824
▁cadet	-12.8824
latinum	-12.8824
▁radical	-12.8824
▁salon	-12.8824
▁Marcel	-12.8825
▁pedal	-12.8825
Higgins	-12.8825
▁genre	-12.8825
▁saddle	-12.8825
▁recreation	-12.8825
▁lesion	-12.8826
TELL	-12.8829
▁SEE	-12.8832
eutic	-12.8848
piration	-12.8896
logging	-12.8982
umbling	-12.904
▁Drag	-12.9312
▁introduc	-12.9356
▁teenage	-12.9363
people	-12.9375
John	-12.9375
▁chemist	-12.9378
▁Corporat	-12.9379
▁fragran	-12.938
▁nutrition	-12.938
=	-12.938
doubtedly	-12.938
▁Benedict	-12.938
▁Bernard	-12.938
▁Beyond	-12.938
▁Bialystock	-12.938
▁Buljanoff	-12.938
▁Clemenza	-12.938
▁Colorado	-12.938
▁Columbia	-12.938
▁Commodus	-12.938
▁Cornwallis	-12.938
▁Diamond	-12.938
▁GODDAMN	-12.938
▁Greece	-12.938
▁Hemingway	-12.938
▁Katrina	-12.938
▁Lindenmeyer	-12.938
▁Lindsey	-12.938
▁Macintosh	-12.938
▁Massachusetts	-12.938
▁McCord	-12.938
▁Microsoft	-12.938
▁Motherfucker	-12.938
▁Muslim	-12.938
▁NEXT	-12.938
▁Nexus	-12.938
▁Nowadays	-12.938
▁Nunez	-12.938
▁Parrish	-12.938
▁Praetor	-12.938
▁Prague	-12.938
▁Prescott	-12.938
▁Retrieval	-12.938
▁Riddick	-12.938
▁Rizzo	-12.938
▁Switch	-12.938
▁Thirteen	-12.938
▁Wladek	-12.938
▁accommodate	-12.938
▁accommodation	-12.938
▁accusing	-12.938
▁aerobic	-12.938
▁antidote	-12.938
▁bloke	-12.938
▁comprehend	-12.938
▁compulsive	-12.938
▁contagious	-12.938
▁context	-12.938
▁crocodile	-12.938
▁decorating	-12.938
▁eccentric	-12.938
▁espresso	-12.938
▁grandparents	-12.938
▁implication	-12.938
▁inferior	-12.938
▁insignificant	-12.938
▁intersection	-12.938
▁janitor	-12.938
▁jockey	-12.938
▁john	-12.938
▁mechanism	-12.938
▁monsieur	-12.938
▁ointment	-12.938
▁philosopher	-12.938
▁pitiful	-12.938
▁prevail	-12.938
▁scoundrel	-12.938
▁skeleton	-12.938
▁superstition	-12.938
▁sympathize	-12.938
▁twenties	-12.938
▁ulcer	-12.938
▁unlimited	-12.938
▁wrestling	-12.938
▁xxxxxx	-12.938
▁yogurt	-12.938
▁zombie	-12.938
▁Bennett	-12.938
▁Clinton	-12.938
▁Felson	-12.938
▁Gardner	-12.938
▁Grusinskaya	-12.938
▁Harbor	-12.938
▁Hobbes	-12.938
▁Lugosi	-12.938
▁Malaysia	-12.938
▁Missouri	-12.938
▁Rennie	-12.938
▁Sampson	-12.938
▁Typical	-12.938
▁diligent	-12.938
▁insomnia	-12.938
▁juicy	-12.938
▁proportion	-12.938
▁surgical	-12.938
▁unicorn	-12.938
▁Bronx	-12.938
▁Milton	-12.938
▁Sophia	-12.938
▁carriage	-12.938
▁conceive	-12.938
▁drastic	-12.938
▁pancakes	-12.938
▁Fortress	-12.938
▁Statue	-12.938
▁cherish	-12.938
▁Decker	-12.938
▁eject	-12.938
▁strategi	-12.938
▁Self	-12.938
▁irrev	-12.938
▁Cycl	-12.938
▁Parents	-12.938
▁owl	-12.938
▁stub	-12.938
▁Sissy	-12.938
▁Zoe	-12.938
▁overflow	-12.938
▁turf	-12.938
▁Parsons	-12.938
▁Social	-12.938
▁Anglo	-12.938
▁proving	-12.938
▁isolated	-12.938
▁queue	-12.938
▁Gwen	-12.938
▁Troy	-12.938
▁Casper	-12.938
▁Steal	-12.938
▁Cloud	-12.938
▁Deliver	-12.9381
▁Collect	-12.9382
▁Abbe	-12.9383
EEP	-12.9383
▁reviv	-12.9396
▁purchas	-12.9492
▁enthusiastic	-12.9668
▁measl	-12.9684
Luc	-12.9806
trained	-12.9829
▁indulge	-12.9869
▁Serious	-12.9962
▁Gordo	-12.9962
Christ	-12.9963
People	-12.9963
chief	-12.9963
complete	-12.9963
stroke	-12.9963
should	-12.9963
▁abort	-12.9965
▁physi	-12.9968
555-1	-12.9968
£	-12.9968
▁ARCADE	-12.9968
▁Almighty	-12.9968
▁Aubrey	-12.9968
▁Bangkok	-12.9968
▁Bartholomew	-12.9968
▁Boatwright	-12.9968
▁Carlotta	-12.9968
▁Charming	-12.9968
▁Clifton	-12.9968
▁Enrique	-12.9968
▁GIVE	-12.9968
▁Greetings	-12.9968
▁Isabella	-12.9968
▁Katherine	-12.9968
▁LAPD	-12.9968
▁Lonnegan	-12.9968
▁Masseria	-12.9968
▁Mayfair	-12.9968
▁Memorial	-12.9968
▁Meredith	-12.9968
▁Oxford	-12.9968
▁Plaza	-12.9968
▁REAL	-12.9968
▁Shinzon	-12.9968
▁Sicilian	-12.9968
▁Singapore	-12.9968
▁Sollozzo	-12.9968
▁Sylvia	-12.9968
▁Virgil	-12.9968
▁Vitamin	-12.9968
▁accustomed	-12.9968
▁amnesia	-12.9968
▁artifact	-12.9968
▁bouquet	-12.9968
▁browsing	-12.9968
▁chromium	-12.9968
▁concussion	-12.9968
▁consumption	-12.9968
▁contempt	-12.9968
▁cunning	-12.9968
▁devastat	-12.9968
▁dolphin	-12.9968
▁enthusiasm	-12.9968
▁etiquette	-12.9968
▁extensive	-12.9968
▁financing	-12.9968
▁hormone	-12.9968
▁immune	-12.9968
▁irrelevant	-12.9968
▁medieval	-12.9968
▁metaphor	-12.9968
▁misplaced	-12.9968
▁pneumonia	-12.9968
▁prominent	-12.9968
▁puppies	-12.9968
▁quarantine	-12.9968
▁reschedule	-12.9968
▁solitary	-12.9968
▁spacious	-12.9968
▁strawberries	-12.9968
▁temporarily	-12.9968
▁toothpaste	-12.9968
▁unlucky	-12.9968
▁vacancies	-12.9968
▁veteran	-12.9968
▁volleyball	-12.9968
▁wallpaper	-12.9968
▁Tahoe	-12.9968
▁Tobacco	-12.9968
▁Toronto	-12.9968
▁bikini	-12.9968
▁lettuce	-12.9968
▁reimburse	-12.9968
▁retiring	-12.9968
▁tournament	-12.9968
Brien	-12.9968
▁Buddha	-12.9968
▁Describ	-12.9968
▁Doucet	-12.9968
▁Freud	-12.9968
▁Joyce	-12.9968
▁NSA	-12.9968
▁Period	-12.9968
▁SAY	-12.9968
▁Saudi	-12.9968
▁Trinity	-12.9968
▁amendment	-12.9968
▁bulb	-12.9968
▁contradict	-12.9968
▁elevate	-12.9968
▁insanity	-12.9968
▁nude	-12.9968
SIDE	-12.9968
▁ninth	-12.9968
▁orientation	-12.9968
▁parallel	-12.9968
▁spike	-12.9968
▁gradual	-12.9968
▁orgasm	-12.9968
▁ANY	-12.9968
▁Ethel	-12.9968
▁Proceed	-12.9968
▁Tammy	-12.9968
▁Watson	-12.9968
▁overheard	-12.9968
▁Barrett	-12.9968
ecurities	-12.9968
▁Jasper	-12.9968
▁Drexl	-12.9968
puncture	-12.9968
▁tolerance	-12.9968
▁detonate	-12.9968
▁Sharp	-12.9968
desirable	-12.9969
▁Type	-12.9969
ridian	-12.9969
▁urina	-12.9969
▁leech	-12.9969
▁Verona	-12.997
▁Blanc	-12.9973
▁conserv	-12.9983
▁flunk	-13.0087
▁shiv	-13.0098
▁announc	-13.0137
ISH	-13.0165
AST	-13.026
Bride	-13.0423
▁seduc	-13.0442
poken	-13.0581
happy	-13.0587
Connell	-13.0588
cliff	-13.0588
Black	-13.0588
Which	-13.0588
First	-13.0588
cloth	-13.0588
haired	-13.0589
▁coincide	-13.0593
▁Abraham	-13.0593
▁Adolf	-13.0593
▁Anastasia	-13.0593
▁Arlyn	-13.0593
▁Arroway	-13.0593
▁Baldwin	-13.0593
▁Barrenger	-13.0593
▁Barzini	-13.0593
▁Burgel	-13.0593
▁Clementine	-13.0593
▁Corbett	-13.0593
▁DAMN	-13.0593
▁Divorce	-13.0593
▁Expect	-13.0593
▁Fortune	-13.0593
▁Gestapo	-13.0593
▁Grissom	-13.0593
▁Hammond	-13.0593
▁Hungarian	-13.0593
▁Hungry	-13.0593
▁Kincaid	-13.0593
▁Language	-13.0593
▁Meadow	-13.0593
▁Mercedes	-13.0593
▁NEVER	-13.0593
▁Nevada	-13.0593
▁Patience	-13.0593
▁Preacher	-13.0593
▁Purple	-13.0593
▁Rorschach	-13.0593
▁Salvatore	-13.0593
▁Sanderson	-13.0593
▁Skywire	-13.0593
▁Sutphin	-13.0593
▁Sweeney	-13.0593
▁Sybok	-13.0593
▁Syndrome	-13.0593
▁Tribune	-13.0593
▁Vatican	-13.0593
▁Vincennes	-13.0593
▁Whitney	-13.0593
▁agencies	-13.0593
▁apprentice	-13.0593
▁bloom	-13.0593
▁collateral	-13.0593
▁cottage	-13.0593
▁credibility	-13.0593
▁deciding	-13.0593
▁deductible	-13.0593
▁deputies	-13.0593
▁dialogue	-13.0593
▁dilemma	-13.0593
▁eligible	-13.0593
▁equivalent	-13.0593
▁eyebrow	-13.0593
▁faucet	-13.0593
▁fifties	-13.0593
▁fugitive	-13.0593
▁hostility	-13.0593
▁hypocrite	-13.0593
▁impolite	-13.0593
▁incompetent	-13.0593
▁inconvenient	-13.0593
▁intuition	-13.0593
▁kilogram	-13.0593
▁licence	-13.0593
▁militia	-13.0593
▁occupy	-13.0593
▁perception	-13.0593
▁poverty	-13.0593
▁practise	-13.0593
▁premature	-13.0593
▁prosecute	-13.0593
▁pyramid	-13.0593
▁questionnaire	-13.0593
▁reluctan	-13.0593
▁spectacle	-13.0593
▁suffocating	-13.0593
▁syndicate	-13.0593
▁transcript	-13.0593
▁trivial	-13.0593
▁twentieth	-13.0593
▁vengeance	-13.0593
▁vibration	-13.0593
▁Lawrence	-13.0593
▁Melissa	-13.0593
▁Writing	-13.0593
▁applicants	-13.0593
▁hawk	-13.0593
▁infiltrat	-13.0593
▁squat	-13.0593
▁tactics	-13.0593
▁Climb	-13.0593
▁Rocco	-13.0593
▁Shadow	-13.0593
▁academy	-13.0593
▁carpenter	-13.0593
▁implement	-13.0593
▁liberal	-13.0593
▁overdue	-13.0593
▁Aramis	-13.0593
▁Giron	-13.0593
▁Hamburg	-13.0593
▁Lainey	-13.0593
▁Renard	-13.0593
▁videotape	-13.0593
▁Arrest	-13.0593
▁Ashley	-13.0593
▁Jenkins	-13.0593
▁Marietta	-13.0593
▁meltdown	-13.0593
▁Rufus	-13.0593
▁warfare	-13.0593
▁Kissinger	-13.0593
▁Rekall	-13.0593
▁Solomon	-13.0593
▁doomed	-13.0593
▁incentive	-13.0593
▁patio	-13.0593
▁pennies	-13.0593
▁Kalen	-13.0593
▁Witness	-13.0593
▁Isaac	-13.0593
▁Medium	-13.0593
▁Shermin	-13.0593
▁Hinkle	-13.0593
▁Wadda	-13.0593
▁ethical	-13.0593
▁newcomer	-13.0593
▁tactical	-13.0593
▁predator	-13.0593
▁PAR	-13.0593
iologist	-13.0593
▁Snap	-13.0593
CREAM	-13.0594
▁FIRE	-13.0594
▁Pretend	-13.0594
▁spank	-13.0594
▁endorse	-13.0594
▁fancie	-13.0595
Beloved	-13.0595
▁Large	-13.0595
▁Gayle	-13.0596
▁Flip	-13.0598
▁enquir	-13.0598
▁liberat	-13.06
Physical	-13.0616
▁Livingston	-13.0633
▁exclud	-13.0638
cycling	-13.0668
hahah	-13.0811
vocation	-13.0877
▁CUT	-13.105
▁Suppos	-13.1244
▁Clair	-13.1252
▁Austria	-13.1254
located	-13.1255
Heaven	-13.1255
Louis	-13.1255
Anything	-13.1255
expensive	-13.1255
James	-13.1255
With	-13.1255
▁Virgin	-13.1259
Chronicle	-13.126
Cinderella	-13.126
oeuvre	-13.126
uperintendent	-13.126
▁ABOUT	-13.126
▁ASAP	-13.126
▁Agreement	-13.126
▁Apollo	-13.126
▁BREAK	-13.126
▁BULLSHIT	-13.126
▁Birmingham	-13.126
▁Capitol	-13.126
▁Caribbean	-13.126
▁Casanova	-13.126
▁Cathedral	-13.126
▁Christopher	-13.126
▁Cohaagen	-13.126
▁Concannon	-13.126
▁Corvis	-13.126
▁Dillinger	-13.126
▁Halloran	-13.126
▁Headquarters	-13.126
▁Hunsecker	-13.126
▁Investigation	-13.126
¥	-13.6597
{	-13.6597
°	-13.7847
@	-13.7847
+	-14.0937
\	-14.0942
′	-14.2942
$	-14.5437
`	-14.877
}	-14.8775
、	-14.8775
。	-15.377
#	-15.3771
|	-15.3772
”	-15.3773
(	-15.3774
^	-15.3775
’	-15.3775
